の 321533
て 269100
と 249938
に 249478
で 220642
が 189027
は 174692
を 156752
た 142484
です 132249
いう 123641
えー 118647
ん 113113
し 112344
も 104381
ます 96025
か 92695
な 84163
こと 65401
まし 55130
え 54085
ね 51187
その 49694
から 49034
ま 47966
い 46182
ない 45532
あのー 41584
って 41090
それ 38992
よう 36340
あの 35268
この 32134
まー 31810
これ 30239
れ 29739
する 29280
もの 28737
そう 27771
ある 26498
一 26396
けど 23781
お 22775
だ 22699
何 22523
さ 22357
あり 21210
けれど 20824
う 20690
人 20616
的 20300
こう 20270
方 19794
いる 18697
てる 18542
なっ 18154
もう 17876
つ 16844
時 16454
私 15947
二 15470
あ 15065
思い 14200
き 14047
中 13279
っ 12826
ちょっと 12217
訳 12031
風 11811
後 11656
ば 11575
えーと 11559
言う 11495
す 11373
ところ 11357
三 11169
おり 11143
なり 11128
今 10891
年 10823
見 10646
考え 10035
あっ 10026
あー 9835
よ 9828
たり 9599
る 9467
いい 9411
いっ 9402
どう 9399
く 9388
なく 9250
じゃ 9245
場合 9219
まで 9189
また 9098
なる 9090
たい 9046
語 8984
自分 8937
み 8892
られ 8679
たら 8660
おー 8647
者 8456
ませ 8378
でき 8363
ここ 8322
れる 8255
り 8109
つい 8025
やっ 7950
日本 7913
ら 7759
さん 7731
十 7685
そこ 7655
出 7609
ぐらい 7608
思っ 7574
だっ 7497
数 7463
だけ 7410
そのー 7124
まず 7025
非常 6932
言っ 6812
五 6715
や 6712
本当 6382
形 6377
四 6314
思う 6287
目 6210
ー@@ 6163
化 6152
音 6151
ス@@ 6114
やっぱり 6020
結果 6008
次 6008
達 5980
せ 5937
時間 5915
できる 5825
えーっと 5820
前 5814
例えば 5783
日 5779
でし 5762
より 5718
為 5710
そして 5703
ー 5659
話 5577
よっ 5502
性 5476
ン 5455
言い 5359
ア@@ 5302
い@@ 5292
度 5249
間 5162
上 5118
感じ 5094
め 5083
問題 5082
いく 5054
研究 5016
文 4996
本 4943
など 4922
リ@@ 4904
行っ 4876
音声 4850
持っ 4783
点 4728
り@@ 4712
ル@@ 4710
なかっ 4708
ン@@ 4678
ト@@ 4453
一番 4416
対し 4370
言わ 4322
意味 4277
よく 4263
子供 4262
ル 4199
子 4198
マ@@ 4187
二十 4171
情報 4158
気 4147
やはり 4085
単語 4056
いたし 4035
データー 4034
色々 4009
先程 4000
っ@@ 3999
モデル 3988
実際 3985
へ 3938
以上 3925
同じ 3920
エ@@ 3915
六 3900
分 3871
くる 3854
部分 3853
ラ@@ 3847
お@@ 3827
ク@@ 3825
シ@@ 3814
関係 3805
一@@ 3776
カ@@ 3755
レ@@ 3743
手 3716
け 3706
か@@ 3671
大@@ 3631
ッ@@ 3609
付け 3608
そんな 3591
バ@@ 3588
うー 3558
あ@@ 3554
学習 3538
回 3533
だろ 3531
実験 3529
き@@ 3527
ロ@@ 3519
凄く 3504
用い 3501
こちら 3471
し@@ 3464
体 3463
ながら 3454
ビ@@ 3450
値 3437
みたい 3407
入っ 3399
説明 3390
例 3384
あるいは 3369
来 3361
認識 3358
う@@ 3348
他 3343
使っ 3334
イ@@ 3324
うち 3311
オ@@ 3310
生 3305
学 3299
ん@@ 3285
ウ@@ 3269
でしょ 3256
必要 3245
ず 3235
力 3231
ド@@ 3227
ござい 3220
八 3215
出し 3196
学校 3192
下 3187
第 3170
評価 3154
分かり 3140
言語 3138
方法 3129
とても 3118
こ 3111
わ 3103
色んな 3098
ス 3094
凄い 3092
こ@@ 3084
千 3082
ット 3069
物 3057
大体 3043
率 3024
得 3021
える 3009
家 3005
言葉 3003
しい 2999
別 2987
場 2959
つ@@ 2949
頃 2946
結構 2942
おい 2930
た@@ 2929
いき 2923
最初 2923
えっと 2909
ま@@ 2898
今回 2897
ら@@ 2886
られる 2873
しまっ 2847
々 2824
出@@ 2818
いけ 2811
タ@@ 2800
実 2789
あれ 2786
法 2784
しまう 2777
なんか 2763
型 2750
システム 2749
島 2731
と@@ 2720
なら 2709
作っ 2692
く@@ 2688
入れ 2685
状態 2683
用 2683
いー 2680
かなり 2674
行く 2668
仕事 2668
書い 2649
番 2648
人間 2647
んで 2643
七 2640
月 2639
表現 2638
話し 2625
九 2623
えーとー 2606
パ@@ 2603
百 2596
メ@@ 2593
車 2587
面 2585
０ 2585
ブ@@ 2585
フ@@ 2578
程 2577
生@@ 2576
Ａ 2571
パーセント 2569
少し 2565
多い 2564
話者 2561
三十 2548
生活 2518
ただ 2517
ミ@@ 2516
ール 2500
それぞれ 2492
線 2488
長 2488
発話 2487
が@@ 2484
まだ 2481
む 2477
先生 2473
デ@@ 2448
さ@@ 2445
量 2438
どの 2428
内 2420
ち 2417
みんな 2398
いただき 2395
関し 2390
国 2378
ム 2373
見@@ 2371
分析 2369
しく 2368
． 2363
特に 2359
行ない 2356
人@@ 2346
くれ 2344
時代 2344
イン@@ 2340
コ@@ 2338
す@@ 2332
道 2324
特徴 2322
部 2319
掛け 2312
金 2303
手@@ 2301
式 2290
最後 2275
ニ@@ 2270
ア 2239
町 2233
わ@@ 2226
よる 2220
僕 2218
中@@ 2210
大 2209
地 2207
取っ 2197
聞い 2195
じ 2195
かっ 2193
な@@ 2193
代 2183
やり 2179
定 2175
もん 2175
御 2171
大学 2170
そ@@ 2155
多く 2149
サ@@ 2138
ック 2134
心 2132
会 2130
しか 2129
発表 2128
は@@ 2126
示し 2124
言え 2117
ち@@ 2107
モ@@ 2105
ネ@@ 2096
好き 2089
構造 2088
せる 2078
じ@@ 2078
比較 2074
ハ@@ 2069
セ@@ 2068
ボ@@ 2067
しれ 2067
プ@@ 2066
つまり 2054
可能 2052
そ 2039
母 2039
英語 2037
社会 2032
元 2031
殆ど 2030
名 2016
差 2014
やる 2012
会社 1998
あまり 1996
ダ@@ 1991
ナ@@ 1979
行なっ 1978
所 1974
一人 1973
行き 1972
っと 1968
高い 1967
み@@ 1966
頭 1962
現在 1944
変化 1941
程度 1940
チ@@ 1937
図 1929
Ｓ@@ 1928
自@@ 1928
更に 1925
行 1918
下@@ 1918
地@@ 1909
友達 1908
とこ 1905
Ｃ@@ 1904
ください 1901
高@@ 1899
ート 1899
期 1899
基本 1898
各 1898
ト 1890
全部 1889
全て 1888
ける 1886
事 1877
側 1875
たくさん 1874
今度 1870
条件 1869
水 1867
いつ 1864
しまい 1858
こんな 1857
最近 1855
普通 1854
める 1852
ジ@@ 1839
付い 1837
ずっと 1828
食べ 1822
日@@ 1821
Ａ@@ 1819
テ@@ 1819
山 1815
見る 1814
終わり 1810
大変 1810
ベ@@ 1808
店 1797
五十 1788
や@@ 1786
大きな 1773
取り@@ 1772
あたし 1772
東京 1770
違う 1766
スト@@ 1763
目的 1758
調査 1751
コン@@ 1751
万 1750
どこ 1745
教育 1737
主@@ 1736
うん 1735
Ｃ 1728
ノ@@ 1725
ガ@@ 1723
まま 1720
先 1716
ク 1714
木 1713
しかし 1712
回@@ 1709
結局 1703
屋 1703
いわゆる 1702
び 1698
ろ 1693
内容 1693
実@@ 1687
利用 1684
分から 1684
ちゃっ 1682
小 1660
あんまり 1653
語@@ 1652
四十 1650
ば@@ 1641
違い 1638
入@@ 1633
上@@ 1628
Ｂ 1623
ポ@@ 1623
一緒 1620
て@@ 1618
おけ 1617
勿論 1615
ディ@@ 1613
影響 1611
我々 1609
文@@ 1605
通@@ 1598
あーの 1598
感 1592
住ん 1591
一応 1589
ライ@@ 1589
ブ 1588
テーマ 1585
リー 1582
なけれ 1582
ひ@@ 1581
辺 1576
Ｔ@@ 1574
平@@ 1570
業 1570
全体 1566
えと 1561
パターン 1559
共 1558
簡単 1556
格 1555
色 1554
合@@ 1551
計算 1548
受け 1547
処理 1546
約 1543
動@@ 1540
Ｐ@@ 1533
なんて 1532
ページ 1524
え@@ 1521
状況 1520
手法 1517
小@@ 1517
対象 1516
なかなか 1516
全然 1513
川 1513
昔 1511
ピ@@ 1510
多分 1507
の@@ 1505
対する 1503
作り 1503
場所 1502
一般 1500
世界 1500
検索 1497
被験 1496
歳 1496
タイトル 1494
皆 1490
ペ@@ 1487
思わ 1485
母音 1483
Ｍ@@ 1481
九十 1480
本@@ 1480
周波 1475
Ｉ@@ 1470
事@@ 1470
すぐ 1469
重要 1468
当時 1464
Ｄ@@ 1462
連@@ 1461
対@@ 1461
種類 1458
様 1453
不 1451
個 1449
げ 1448
オー@@ 1447
挙げ 1445
とっ 1445
も@@ 1440
考える 1439
始め 1436
平均 1435
知識 1433
分布 1431
発@@ 1428
抽出 1426
自然 1426
る@@ 1422
に@@ 1418
フィ@@ 1417
原@@ 1415
ほ@@ 1415
環境 1414
ズ 1410
もっと 1407
不@@ 1407
だ@@ 1406
解析 1403
け@@ 1402
作@@ 1400
良く 1387
女性 1382
全く 1382
重@@ 1380
まとめ 1377
声 1376
名詞 1375
同@@ 1374
電話 1373
員 1373
機 1369
取り 1367
ひ 1366
高 1366
通り 1365
成@@ 1363
保@@ 1363
大きく 1357
ど@@ 1352
論 1352
どんどん 1345
ード 1344
そい 1344
表 1342
提案 1342
定@@ 1340
口 1339
まっ 1335
気持ち 1332
確率 1330
学@@ 1330
対応 1329
作る 1329
なぜ 1328
六十 1327
今日 1326
田 1326
イ 1323
節 1322
選択 1321
使う 1321
ラン@@ 1320
直@@ 1315
アメリカ 1313
外 1312
開@@ 1310
逆 1308
後@@ 1306
推定 1297
正@@ 1296
九百 1295
分@@ 1294
年@@ 1294
駅 1287
れ@@ 1286
ンス 1286
ホ@@ 1286
えっとー 1285
父 1285
高校 1285
機能 1284
ツ@@ 1283
位置 1282
質 1278
ショ@@ 1276
分かっ 1275
彼 1274
分類 1273
解@@ 1271
詞 1270
書 1269
述べ 1265
行なわ 1264
グ@@ 1263
ふ@@ 1263
ラ 1261
らしい 1261
Ｔ 1255
プロ@@ 1255
前@@ 1253
犬 1253
無@@ 1252
集 1250
ぶ 1249
器 1248
せ@@ 1246
分かる 1246
経験 1246
ップ 1246
新@@ 1246
存在 1245
ちょうど 1243
もし 1241
二人 1239
ろ@@ 1235
なきゃ 1233
外@@ 1232
あーのー 1232
使わ 1231
行なう 1230
必ず 1230
広@@ 1230
傾向 1222
要する 1221
明@@ 1217
はい 1217
市 1216
ング 1215
ケ@@ 1215
キ@@ 1214
円 1213
ちゃん 1212
ず@@ 1207
刺激 1206
ソ@@ 1206
使用 1205
め@@ 1205
Ｒ@@ 1204
ふ 1202
ム@@ 1201
家族 1200
検討 1199
当然 1197
よ@@ 1194
予@@ 1191
相手 1185
理 1183
合 1180
おき 1179
Ｓ 1178
Ｎ@@ 1177
水@@ 1176
具体 1175
近@@ 1173
テキスト 1172
コー@@ 1171
リー@@ 1171
変@@ 1170
アクセント 1169
誰 1169
残っ 1167
多@@ 1166
効果 1164
ース 1164
与え 1158
Ｒ 1158
身 1145
Ｎ 1140
想 1139
音楽 1137
等 1137
ファ@@ 1137
親 1133
段 1132
種 1131
進@@ 1128
だんだん 1126
ント 1125
初めて 1125
段階 1124
生成 1121
八十 1120
レベル 1119
ぶ@@ 1119
奇麗 1117
立@@ 1114
出す 1113
入力 1111
音節 1111
ティ@@ 1111
うまく 1110
調 1106
音@@ 1105
長@@ 1104
幾 1103
教@@ 1103
名前 1100
知ら 1099
旅行 1099
体@@ 1097
生き 1097
グラム 1096
着@@ 1093
使い 1092
か月 1091
文章 1091
構成 1090
自身 1089
Ｐ 1087
対話 1085
スタ@@ 1085
県 1084
無人 1084
食@@ 1082
勉強 1082
ちゃう 1080
三@@ 1077
リ 1075
持つ 1075
小さい 1072
単@@ 1071
足 1070
帰っ 1070
七十 1068
表わし 1067
品 1066
ごと 1062
伝@@ 1062
定義 1061
とにかく 1060
海 1060
中心 1059
今後 1058
でる 1058
パラメーター 1057
分け 1056
方向 1056
非 1055
選@@ 1055
グループ 1055
言 1054
Ｇ@@ 1053
ド 1052
ご@@ 1052
込ん 1051
朝 1050
提示 1049
課題 1048
活動 1047
悪い 1047
気@@ 1046
Ｄ 1046
動詞 1046
近い 1043
判断 1042
Ｌ@@ 1042
会@@ 1042
チャ@@ 1041
理解 1039
意識 1037
上げ 1037
変わっ 1036
精度 1036
以外 1036
パー@@ 1034
個人 1033
系 1032
バイ@@ 1031
プ 1030
飲@@ 1030
収@@ 1026
グラフ 1022
ゴ@@ 1022
求め 1021
夜 1021
関連 1019
産 1019
テレビ 1018
どんな 1016
覚え 1016
思い@@ 1015
大事 1015
スト 1014
振@@ 1011
単位 1009
調@@ 1008
作成 1006
近く 1006
関する 1005
入 1003
ちゃ 1000
減@@ 998
いっぱい 998
毎日 997
国@@ 997
意 996
感@@ 992
のみ 992
新しい 992
ぼ@@ 992
成 991
ラー 985
見え 982
位 982
印象 981
ほ 980
ゆ 978
自動 977
交@@ 976
絶対 972
易い 972
端 970
雑音 967
リング 967
学生 967
べき 965
映画 964
合わせ 963
内@@ 962
文字 961
安@@ 961
リン@@ 961
確認 960
いただい 960
先@@ 960
やっぱ 960
年間 959
音響 956
ロー@@ 955
世紀 955
従来 954
良い 954
空間 954
新聞 954
初め 953
Ｆ@@ 953
項目 953
難しい 952
クラ@@ 950
地域 946
館 946
太@@ 945
真@@ 945
異@@ 944
すれ 942
概念 942
取る 941
語彙 940
Ｈ@@ 935
最@@ 935
加@@ 934
バー 934
句 934
国語 934
丸 933
細@@ 933
入り 933
天@@ 933
大きい 932
Ｏ@@ 932
時期 931
ジャ@@ 931
リア 930
周り 929
住@@ 928
くれる 928
配@@ 927
目@@ 927
知っ 927
調べ 924
立 924
距離 920
行動 919
ユーザー 919
音素 916
工@@ 916
資料 915
字 915
歴史 915
たく 914
くらい 912
半 910
指導 910
神@@ 909
反@@ 909
指@@ 908
常 907
決定 904
経@@ 903
電@@ 903
ティー 902
流れ 901
良かっ 900
みる 898
ざ@@ 898
客 896
台 895
文化 895
個@@ 891
出る 891
焼@@ 891
信 888
歌 888
際 886
有名 886
ど 884
動 883
明 883
文法 883
ぎ@@ 881
要素 881
買っ 881
火 880
ウェ@@ 880
公@@ 878
タイ@@ 875
フ 875
重 874
ンド 873
過ぎ 873
強@@ 872
解 872
合い 871
運動 869
乗@@ 868
列 868
ぐ@@ 868
野 866
半@@ 865
間@@ 865
来る 865
苦@@ 865
ション 864
ワ@@ 864
読ん 862
合成 862
行か 861
遅@@ 860
設定 859
がっ 859
報告 857
決@@ 857
アル@@ 857
ばかり 857
和 856
比べ 855
知@@ 854
着 853
風@@ 852
特@@ 851
当@@ 850
変換 850
一方 849
習@@ 849
ステ@@ 848
要 848
ーション 846
上がっ 846
区 846
申し上げ 845
末 845
ュ@@ 844
少ない 844
相@@ 844
理由 844
えーっとー 842
言える 841
物@@ 841
建@@ 841
生まれ 840
ストラ@@ 840
クラス 840
発声 838
関数 838
味 838
教え 838
要約 838
優@@ 836
ょ 835
余@@ 835
声@@ 834
び@@ 833
属性 833
主 831
繋@@ 831
行@@ 831
同時 830
数@@ 830
民 830
補@@ 829
まる 827
マ 827
ぐ 827
男性 826
表わす 826
計 826
カー 826
イメージ 826
人生 826
自体 825
親@@ 824
山@@ 824
有@@ 823
ズ@@ 821
似 819
移@@ 819
顔 818
テー@@ 817
Ｅ@@ 816
二百 816
Ｌ 815
次元 815
以下 813
そん 813
ゲ@@ 813
かく 810
面@@ 810
歌@@ 809
付@@ 809
どれ 809
病院 809
乗っ 807
興味 806
科 806
授業 805
確@@ 804
ね@@ 804
消@@ 804
ずつ 803
記述 803
かい 803
ヒ@@ 802
書き 802
もらっ 801
違っ 800
ぬ 798
当 798
合っ 797
とー 797
ージ@@ 797
開発 796
古@@ 796
紹介 795
都@@ 795
運@@ 794
集@@ 794
ックス 792
ット@@ 790
まり 790
やら 790
中国 788
残@@ 788
辺り 786
馬 786
Ｍ 784
基準 784
ギ@@ 784
扱@@ 784
ましょ 784
自由 783
シャ@@ 781
質問 778
仕@@ 776
素@@ 775
セット 774
東@@ 772
料 771
つき 770
で@@ 767
終わっ 767
題 766
付き 765
形式 765
層 765
方言 765
解釈 765
空@@ 765
制 764
発 764
替え 764
わりと 764
ニュース 764
取り敢えず 764
立て 763
改@@ 763
園 763
テスト 760
共@@ 760
確か 760
友人 759
ルール 758
コーパス 758
アク@@ 757
練習 756
変数 756
食 756
最も 755
対 755
読@@ 754
白@@ 752
置い 752
正解 751
結婚 751
試@@ 750
予測 750
長い 750
要@@ 750
社 749
入る 748
向@@ 747
青@@ 746
置 746
大切 745
素 744
料理 744
低い 743
最終 743
直接 741
ザ@@ 740
ツ 740
ター 740
男 740
健康 740
なし 739
技術 739
ぎ 738
限 736
流@@ 735
新 734
読み 733
応@@ 732
海@@ 732
ちゃんと 730
タイプ 729
金@@ 729
事例 728
抜@@ 726
１ 725
辞書 725
務 725
支@@ 724
流 724
正 724
増@@ 723
込み 723
足@@ 722
レン@@ 722
講演 722
悲@@ 722
売@@ 720
引き@@ 719
Ｉ 719
幅 718
遠@@ 718
命 716
Ｆ 714
掛かっ 714
ール@@ 713
情 713
連れ 712
どちら 710
データーベース 710
ージ 709
べる 707
絵 707
キーワード 707
彼女 707
御覧 706
面白い 706
子音 705
マン 705
歩い 705
付ける 704
アー 704
部@@ 702
成分 702
Ｋ 701
んと 700
規則 700
強い 699
早@@ 698
接@@ 698
部屋 696
類 696
加え 695
もっ 695
右 694
次@@ 693
若い 693
関@@ 693
切っ 693
文節 693
高く 692
方@@ 692
残し 692
サー@@ 692
猫 692
群 691
さっき 689
スペ@@ 689
考察 688
Ｂ@@ 688
名@@ 688
渡@@ 688
答え 686
意@@ 685
像 684
再@@ 684
十分 683
ング@@ 683
なん 683
義 682
聞き 681
頻度 681
すい 681
書く 681
申し 681
スピ@@ 680
機@@ 680
増え 680
差@@ 680
ター@@ 679
同様 679
推@@ 678
呼ば 677
返@@ 677
切@@ 676
心@@ 676
全 675
てっ 675
プラス 675
土@@ 675
美@@ 675
記 674
無 674
ダイ@@ 673
こっち 669
らし 668
決め 668
記事 668
レー@@ 667
受け@@ 667
イン 666
クション 666
繰り返し 665
両方 665
市@@ 665
明らか 664
年齢 662
アイ@@ 662
ッド 662
チ 662
口@@ 662
四@@ 661
続け 661
特性 661
ント@@ 661
曲 660
元々 658
ピッチ 656
状 656
ょ@@ 656
表@@ 656
共通 655
しかも 655
プレ@@ 654
帯 654
ジ 654
女 654
聞く 653
含ま 653
言い@@ 653
会話 653
作業 650
ック@@ 649
忘れ 649
戦 649
割@@ 648
複数 647
さまざま 647
文書 647
接 646
張@@ 646
氏 645
誤り 644
相関 643
なさい 643
移動 642
形容 642
括弧 641
および 640
備 639
やつ 639
田@@ 639
飛@@ 639
エージェント 639
ほぼ 638
楽しい 638
短@@ 637
話題 637
比@@ 636
早く 636
フォ@@ 636
いか 635
動物 634
単純 634
ジュ@@ 632
両@@ 631
けれ 631
ーム 631
歩 631
一生 631
登@@ 631
利@@ 630
出力 630
入れる 630
混@@ 629
バー@@ 628
称 628
知覚 627
オ 627
酒 627
適応 626
ええ 625
ベクトル 624
事件 623
最大 622
フレーム 622
戦@@ 621
受@@ 620
区間 618
掛ける 618
置@@ 618
護 617
過去 617
グラ@@ 617
夏 617
赤@@ 616
クラスター 616
順 615
外国 615
花 615
用意 614
にくい 614
葉 614
身@@ 614
選ん 614
コ 614
婦 614
各@@ 612
民@@ 612
重み 611
少なく 611
かわ@@ 611
一致 610
通っ 610
ブル 610
２ 610
他@@ 610
押@@ 609
ーク 609
背景 609
原 609
切り 609
現われ 608
転@@ 608
主人 608
おんなじ 607
結@@ 606
画 606
能力 606
起き 606
送@@ 606
魚 606
級 605
要因 604
スペクトル 603
カテゴリー 603
立っ 603
室 603
速 603
分割 602
勢 602
形態 600
測定 600
後ろ 600
北@@ 600
しゅ 599
独@@ 597
転 597
リスト 597
ルー@@ 597
おいしい 597
選手 597
付く 596
主義 596
電車 595
打@@ 595
聴覚 594
耳 594
即ち 594
ただし 593
ーズ 593
ベル 592
説 592
失@@ 592
駄目 592
かかわ@@ 591
あげ 591
積@@ 591
ヤ@@ 590
原因 590
グ 588
信号 588
専門 588
界 587
おか@@ 587
週間 587
先行 586
変え 586
ヘルツ 584
はっきり 584
得る 583
まいり 583
キュ@@ 583
作品 583
タスク 582
てく 582
理論 582
和@@ 581
かん 581
過程 580
良 580
翻訳 580
嫌 580
村 580
極@@ 579
痛@@ 579
難@@ 578
記憶 578
フランス 577
谷 577
中学 577
児 576
変 576
近 574
適用 574
含め 574
仮説 574
五@@ 574
いや 573
削@@ 573
フェ@@ 573
続い 572
助@@ 572
出来@@ 572
企業 572
注意 571
現象 571
分野 571
投@@ 571
信@@ 571
戦争 571
喜@@ 570
あろ 569
伸@@ 569
代表 569
取@@ 569
茶 569
参加 568
Ｊ@@ 568
食べる 568
わっ 567
キャ@@ 567
郎 567
飼@@ 567
証 565
大き 565
盛@@ 564
動作 564
ライン 563
取れ 563
談 563
思い出 563
害 562
態 562
ニング 561
除 561
昭和 560
願い 559
出現 558
メン@@ 558
夫 558
書@@ 558
コミュニケーション 557
有効 557
もらい 557
寄@@ 557
ＨＭＭ 557
資@@ 557
かし 556
落 555
たまたま 555
異なる 554
作ら 554
セン@@ 554
何々 554
候補 553
意見 553
波 552
特定 552
んん 551
とぅ 551
集合 551
寝 551
我@@ 551
ーン 550
張 550
整@@ 550
理@@ 550
類似 550
少@@ 550
放@@ 550
感情 549
急 549
枚 549
用@@ 549
在 548
Ｘ 548
しかっ 548
演@@ 548
肉 547
ベース 547
分かん 547
楽し@@ 547
制約 546
項 546
反応 545
角 545
して 545
商@@ 545
ホテル 544
経済 544
アン@@ 543
始@@ 543
ちゃ@@ 543
試験 543
キ 543
検@@ 542
連続 542
ぞ 542
戻@@ 542
たっ 542
二千 541
こそ 541
保険 541
マイナス 540
辞@@ 540
団 540
違@@ 539
統@@ 538
片@@ 538
考慮 538
ダ 538
今年 538
知り 538
作 537
自己 537
深@@ 537
病気 537
固@@ 536
終@@ 536
限@@ 536
参@@ 536
海外 535
パー 535
紙 535
降@@ 535
費 535
食事 535
クリ@@ 534
動き 534
時点 534
議論 534
能 533
職@@ 533
野球 533
バス 533
スコア 532
なくなっ 532
世@@ 532
業@@ 532
商品 531
何@@ 530
並@@ 530
あなた 530
示 529
家庭 529
低 528
組み合わせ 528
策 528
社@@ 528
通し 527
母親 527
掛かる 527
ワー@@ 526
示す 526
属 526
写真 526
世 526
楽しみ 526
一部 525
弱@@ 525
離れ 525
止 525
所@@ 525
ゆ@@ 524
源 524
注目 523
依存 523
服 523
メール 523
機械 523
ダー 522
向こう 522
払@@ 522
探@@ 521
役@@ 521
ッチ@@ 520
除@@ 520
持 520
見せ 520
ラム 520
役 520
人々 520
寺 520
縮 519
黒@@ 519
指摘 518
サイ@@ 518
既に 518
西 518
歩@@ 518
完全 517
心理 517
実現 517
範囲 516
跡 516
厳@@ 516
追@@ 516
城 516
起 515
目標 515
落ち@@ 515
図@@ 514
パス 514
統計 514
聞か 514
五百 514
捉え 514
望 514
族 514
用いる 513
係数 513
アルゴリズム 513
西@@ 513
困@@ 513
汚@@ 513
聞き@@ 512
ほしい 512
楽@@ 512
領域 511
クト 511
任 511
小さな 510
冷@@ 510
議 510
勝@@ 510
発音 509
船 509
過@@ 508
立場 508
ヘ@@ 507
パソコン 507
以前 506
ボール 506
ゅ 506
コンピューター 505
門 505
起こ@@ 504
長く 504
らしく 504
パン 503
問@@ 502
出さ 502
教師 502
途中 501
回答 501
舞@@ 501
書か 501
左 500
存じ 500
ンド@@ 499
がる 499
サー 499
東 499
欠@@ 498
釣@@ 498
規@@ 498
適@@ 497
場面 497
協@@ 497
っちゅう 497
速度 496
改善 496
がり 496
根 496
飛行 496
スター 495
政@@ 495
路 494
家@@ 494
解決 494
楽 494
有意 493
観察 493
活@@ 493
一体 493
曜 492
観 492
散@@ 492
省 492
公園 492
遊び 492
怒@@ 491
ユ@@ 491
メー@@ 491
行為 491
強く 490
懸命 490
帰@@ 490
好@@ 489
ウ 489
構築 488
いただ@@ 488
精神 488
最適 487
低@@ 487
エン@@ 487
期待 487
競@@ 487
ッチ 486
断 486
座@@ 485
メント 485
板 485
昨@@ 485
互い 484
ゃ 484
用法 484
娘 484
録 483
トラ@@ 483
ロ 483
複合 482
む@@ 482
洗@@ 482
自転 482
基@@ 481
判 481
材 480
Ｆ０ 480
花@@ 480
直し 479
育@@ 479
言@@ 479
雑誌 479
埋@@ 478
スー@@ 478
是非 478
法@@ 478
聴 477
誤@@ 477
標準 477
満@@ 477
左@@ 476
体系 476
代@@ 475
踏@@ 475
方式 475
持ち 475
設計 475
豊@@ 475
死@@ 475
ニュー@@ 474
模@@ 474
然 474
はず 473
ちゃい 473
ホン 472
視 472
休み 472
恐らく 472
売 472
価値 472
レ 471
ーター 471
表示 471
現実 471
認知 469
番組 468
切れ 468
仮定 467
タ 467
便利 467
浮@@ 466
論文 466
南 466
根@@ 466
ざ 465
ゼ@@ 465
ぱ@@ 465
守@@ 465
ハイ@@ 464
走@@ 464
集団 464
治 464
夢 464
尾 463
制@@ 463
べ@@ 463
Ｖ@@ 462
検査 462
静@@ 462
ョ@@ 461
教材 461
断@@ 460
固有 460
呼@@ 460
おっき@@ 460
幸@@ 460
留@@ 460
カ 459
得@@ 459
観点 458
幼@@ 458
キロ 458
マイ@@ 458
拡@@ 457
三百 457
ブラ@@ 457
倍 456
起こっ 456
現@@ 456
愛@@ 456
現代 455
教科 455
仮名 454
プラ@@ 454
レーション 454
ナー 454
撮@@ 453
延@@ 453
関 453
石 453
話す 452
まと@@ 452
やめ 452
いずれ 451
見つ@@ 451
音韻 450
空 450
ポイント 450
泣@@ 449
ゅ@@ 449
再 449
教 449
象 448
記@@ 448
米 448
吸@@ 448
集め 448
秒 447
読み@@ 447
狭@@ 447
休@@ 447
つつ 447
笑@@ 447
北 447
団@@ 447
典 446
存 445
切り@@ 445
地方 445
したがっ 445
寝@@ 445
要求 444
獲得 444
計画 444
白 444
バイト 444
取り上げ 443
曲@@ 443
柄 443
ニー 443
知 442
主に 442
進め 442
件 442
照@@ 442
多少 440
なさ 440
尺度 440
弁@@ 439
げ@@ 439
性能 439
ああ 439
韻律 437
モーラ 437
破@@ 437
全@@ 436
七@@ 436
役割 436
野@@ 436
用語 436
別@@ 435
音源 435
最小 435
続き 435
相 435
被@@ 435
待@@ 434
基づい 433
当たり 433
探索 432
ノード 432
与える 431
都 431
発生 431
事実 431
限り 431
士 431
道具 431
暮らし 431
半分 430
いただく 430
布 430
派 430
伴@@ 429
横軸 429
止@@ 429
積 429
随分 429
割 429
関心 429
カル@@ 429
書き@@ 428
鳥 428
行け 428
版 427
着い 427
女の子 427
閾値 426
製@@ 426
感覚 426
喋@@ 426
ミリセカンド 425
始まっ 425
州 425
例@@ 425
呼ん 425
大会 425
落ち 424
多かっ 424
回っ 424
体験 424
易 423
普段 423
卒業 423
もらう 423
信頼 423
スポーツ 423
びっくり 423
経 422
プリ@@ 422
申し@@ 421
大人 421
土 421
父親 421
検出 420
同 420
院 420
続@@ 420
総@@ 419
負@@ 419
地球 419
頼@@ 418
温@@ 418
しょ 417
雨 417
きっと 417
治@@ 417
薬 417
づ@@ 416
真ん中 416
予稿 416
通常 416
設@@ 416
アナ@@ 416
上がり 415
おく 415
念 415
頑張っ 415
橋 415
急@@ 414
プロ 414
機会 414
少年 414
若干 413
初@@ 413
会っ 413
近所 413
未知 412
算 412
きっかけ 412
インターネット 412
前後 411
表記 411
スター@@ 411
六@@ 410
同士 410
合う 410
向上 410
接続 410
なく@@ 410
だり 410
街 410
実践 410
姿 410
調音 409
号 409
平 409
なれ 409
隣り 409
そちら 408
がとう 408
戻っ 408
探し 408
ジェクト 408
日常 407
見える 407
港 407
極 406
束 406
遺@@ 406
横 405
含@@ 405
崎 405
決まっ 405
与 404
助 404
比 403
やっと 403
Ｙ 403
シ 403
性格 403
八@@ 403
老@@ 403
ミ 402
点@@ 402
すー 402
減 402
否定 402
キシ@@ 402
校 402
もしくは 401
パート 401
訓練 400
君 400
宅 400
礼 399
反対 399
草 399
容@@ 398
編@@ 398
展開 398
読む 397
ウン@@ 397
結論 397
丸@@ 397
習 397
リティー 396
観測 396
時@@ 396
短い 396
将来 396
科学 396
飲ん 396
まさ@@ 396
味@@ 396
因子 396
許@@ 395
エ 395
概@@ 395
込む 395
残念 395
問 395
ドイツ 395
国際 395
働い 394
軽@@ 394
農@@ 394
権 394
便 394
スポ@@ 394
勤@@ 394
Ｅ 393
ート@@ 393
正しい 393
しょう 393
佐@@ 393
ジー 392
分かれ 392
行列 391
緑 391
縦軸 391
警@@ 391
ネットワーク 391
おい@@ 391
両親 391
Ｏ 390
底 390
婆 390
起@@ 390
政治 390
走っ 390
医者 390
袋 390
寒@@ 390
描@@ 389
生徒 389
男@@ 388
工 388
犯@@ 388
ード@@ 388
利 388
談話 388
沢 388
お前 388
認め 387
慣れ 387
ちょ@@ 387
収 387
引っ@@ 387
松@@ 387
毎@@ 387
ストレス 387
若@@ 387
ニュ@@ 387
発展 386
携帯 386
コード 386
驚@@ 386
発見 386
進 385
大阪 385
きる 385
遊@@ 385
ランド 385
死ん 385
ミング 384
突@@ 384
暗@@ 384
鉄 384
せい 384
振り返っ 384
二三 384
漢字 384
神 384
試合 384
メ 383
ピー 383
春 383
石@@ 383
塚 383
不安 383
向け 382
制御 382
マー@@ 382
意図 382
術 382
進ん 381
具 381
居 381
指示 380
相当 380
ご 380
至@@ 380
ファイ@@ 380
どっ 380
ピック 380
助詞 380
尤度 379
周辺 379
完@@ 379
しょ@@ 378
向 378
古い 378
シー 378
玉 378
幾ら 377
都市 377
敬語 377
数字 376
防@@ 376
受験 376
帰り 376
管理 376
クリー@@ 375
二@@ 375
過ごし 375
ナ 375
組み@@ 375
バック 375
心配 375
国民 375
つらい 375
潜@@ 374
区別 374
舌 374
済@@ 374
ティブ 374
げる 374
兄 374
フィルター 373
同一 373
証@@ 373
疑問 372
前提 372
恐@@ 372
境界 371
騒@@ 371
弟 371
職 371
御飯 371
タグ 371
染@@ 370
様子 370
正答 370
射 370
悪く 370
鏡 370
取 369
上昇 369
付か 369
ワー 369
ザ 369
組み 368
割合 368
もら@@ 368
多 368
講@@ 368
週 368
わり 367
小さく 367
波形 367
ヨーロッパ 367
キー@@ 366
形成 366
未@@ 366
レート 366
師 366
輩 366
周@@ 365
話し言葉 365
さえ 365
粉 365
Ｕ@@ 365
寂@@ 365
困難 364
無声 364
取ら 364
統 364
サン@@ 364
記号 364
聴@@ 363
森 363
クロ@@ 363
準備 363
以降 363
有声 363
立つ 363
田舎 363
令 362
奥 362
使える 362
アー@@ 362
案 362
視@@ 361
へ@@ 361
障害 361
えとー 361
達@@ 361
ぽ@@ 361
期間 360
表わ@@ 360
インター@@ 360
ごみ 360
聞こえ 359
含む 359
文脈 359
ケー@@ 359
殺@@ 359
スキー 359
速@@ 358
スク 358
冬 358
操作 357
性質 357
じる 357
てん 357
いこ 357
分散 356
主張 356
戸 356
フレー@@ 356
見つけ 356
イギリス 356
食べ物 356
旅 356
楽しく 356
圧 355
どっち 355
詳@@ 355
赤 355
切 355
林 355
球 354
立ち@@ 354
ッシュ 354
雰囲気 354
則 353
子@@ 353
導入 353
複雑 353
引@@ 353
座 353
ギ 353
退@@ 353
ケット 353
修飾 353
捕@@ 353
ぜ 352
Ｇ 352
台@@ 352
一定 351
変わら 351
以@@ 351
蓋 351
教室 351
常@@ 351
フォー@@ 351
ドラ@@ 351
少 350
キャン@@ 350
労 350
現 350
装 350
独立 349
異 349
鼻 349
受ける 349
大丈夫 349
朝@@ 349
組@@ 349
区@@ 349
番号 348
上げる 348
感じる 348
支援 348
持ち@@ 347
記録 347
ホルマント 347
寄り 347
ぴ@@ 347
じゅ 346
脳 346
階 346
ルス 346
遊ん 346
始 345
等@@ 345
正規 345
メートル 345
ュー 345
映@@ 345
詳しく 344
ちっ@@ 344
広い 343
品詞 343
落と@@ 343
告 343
起こし 342
軸 342
残り 342
勝手 342
格好 342
論理 342
額 342
照 341
オフ 341
絞@@ 341
無理 341
宿 341
趣味 341
癌 341
イズ 340
しっかり 340
砂@@ 340
迷@@ 340
触@@ 340
物凄く 340
戦後 340
素晴らしい 340
作用 339
話@@ 339
納@@ 339
本来 339
閉@@ 339
換@@ 339
香@@ 339
ゴ 339
階層 339
安い 339
レー 338
規模 338
瞬@@ 338
たばこ 338
果た@@ 337
弾@@ 337
引き 337
引っ越し 337
安定 336
提供 336
乳 336
元気 336
嫌い 336
育て 336
識別 335
いれ 335
代わり 335
略 335
親密 335
し方 335
拍 335
トライ@@ 335
注@@ 335
センチ 335
ばし 335
コスト 335
世の中 335
買い@@ 335
待っ 335
右@@ 334
越@@ 334
国家 334
拠 334
構文 334
新宿 334
姉 334
会い 334
偏@@ 333
席 333
やろ 333
乗り@@ 333
就職 333
壁 332
混合 332
呼び 332
影 332
なるべく 332
倒 332
沿@@ 332
売っ 332
勧@@ 332
カリ@@ 332
ソース 332
述語 332
赤い 331
求める 331
組織 331
シン@@ 331
ブル@@ 331
劇@@ 331
図書 331
楽しかっ 331
さっ 330
カー@@ 330
きちんと 330
迎@@ 330
発達 329
ップ@@ 329
よろ@@ 329
材料 329
乗 329
骨 329
福@@ 329
適切 329
いらっしゃ@@ 329
川@@ 328
継続 328
藤 328
疲@@ 328
増加 328
ネス 328
付与 328
ディー 327
プログラム 327
復 327
判定 327
想像 327
千@@ 327
整理 327
集まっ 327
もり 327
適合 326
絡 326
脱@@ 326
働@@ 326
初期 325
生じ 325
Ｈ 325
有 325
じゃ@@ 325
数値 325
上がる 325
良@@ 325
古 325
べ 324
順番 324
去年 324
逃@@ 324
仲@@ 324
促@@ 323
四百 323
仲間 323
総合 323
いかに 323
全国 323
何に 323
木@@ 322
強調 322
省略 322
変わり 322
文献 322
だいぶ 322
夕@@ 322
手紙 322
買@@ 322
替@@ 321
容 321
むしろ 321
遷移 321
及 321
宗教 321
祖@@ 321
下降 320
サービス 320
持た 320
かかわら 320
ギー 320
新た 320
焦点 320
っぽ@@ 320
ピアノ 320
ホーム@@ 320
向かっ 319
母語 319
変動 319
合わ@@ 319
アプローチ 319
デン@@ 319
薄@@ 319
ラス 319
産@@ 319
南@@ 319
貰っ 319
植物 319
キー 318
Ｖ 318
ジェ@@ 318
当て 318
副詞 318
っつう 318
怖い 318
菓子 318
示さ 317
キング 317
過 317
登録 317
チェック 316
布@@ 316
測 315
全員 315
構@@ 315
直 315
化@@ 315
劇 315
死 315
星 315
韓国 314
使え 314
専@@ 314
できれ 314
効率 314
指し 314
フラ@@ 314
ピーク 313
しも 313
暫く 313
介@@ 313
ジン 313
油 313
嬉しかっ 313
ばら@@ 312
モー@@ 312
いき@@ 312
視点 312
ィ@@ 312
掛@@ 312
ワン 312
論@@ 311
罪 311
トリ@@ 311
京都 311
いた@@ 311
血@@ 311
手術 311
サッ@@ 311
好 310
ごめん 310
頑@@ 310
溜@@ 310
ゲーム 310
江戸 310
順@@ 309
張っ 309
まえ 309
アップ 309
成長 309
態度 309
建物 309
カメ@@ 308
やか 308
客観 308
修正 308
ナル 308
配 308
段@@ 308
やり@@ 308
触れ 307
官 307
トロ@@ 307
相互 307
イタ@@ 307
熱@@ 307
息子 307
スケ@@ 306
電 306
回帰 306
ティング 306
字@@ 306
茶@@ 306
類@@ 306
細 305
離@@ 305
マイクロ@@ 305
果 305
効@@ 305
丁@@ 305
ビデ@@ 304
系列 304
品@@ 304
共有 304
雑@@ 304
伝え 304
命@@ 304
チーム 304
起こる 303
引い 303
装@@ 303
クター 303
現状 303
鳴@@ 303
危@@ 303
ベー@@ 303
嬉しい 303
働き 303
壊@@ 303
面白@@ 303
夜@@ 303
ぜ@@ 302
圧@@ 302
井 302
思@@ 302
銀行 302
ソン 301
帯域 301
値@@ 301
間違っ 301
変わ@@ 301
揃@@ 301
挙@@ 301
並ん 301
気分 301
生き@@ 301
病 301
ファン 301
予定 300
間違い 300
評@@ 300
局 300
加 300
失敗 300
開 300
ジョ@@ 300
悩@@ 300
針 300
府 300
道路 300
大好き 300
位相 299
判@@ 299
画像 299
核 299
こん 299
追加 299
抱@@ 299
マル@@ 299
読 299
サイクル 299
引用 299
町@@ 299
っつっ 299
たまに 299
パラ@@ 298
順序 298
応答 298
突然 298
掛かり 298
打ち@@ 298
感動 298
付き合い 298
基づく 297
抑@@ 297
包@@ 297
ぼ 297
育 297
筋 296
トゥ@@ 296
火@@ 296
具合 296
現場 296
怪@@ 296
景 296
景@@ 296
たかっ 295
強 295
テン@@ 295
当たる 295
マンション 295
実家 295
らい 294
視覚 294
律 294
チュ@@ 294
オン 294
扱う 294
そっ 294
ターゲ@@ 293
スマ@@ 293
なお 293
参考 293
求 293
量@@ 292
ャ@@ 292
指標 292
主観 292
揺@@ 292
光 292
物語 292
悪 292
アウ@@ 292
ボー@@ 292
センター 292
リン 292
入院 292
限ら 291
中央 291
ソフト 291
歯 291
空気 291
ウン 291
功 291
提@@ 291
込ま 291
放送 291
報@@ 291
帰る 291
逆@@ 290
担@@ 290
カル 290
女子 290
超@@ 290
野菜 290
占@@ 290
成立 290
祭り 290
温泉 290
こっ 289
明確 289
ラー@@ 289
負け 289
ワイン 289
行こ 289
交通 289
Ｘ@@ 288
画@@ 288
とい 288
当たり前 288
横浜 287
普@@ 287
メディ@@ 287
パン@@ 287
希@@ 287
営@@ 287
アル 286
下がっ 286
努@@ 286
物理 286
３ 286
九@@ 286
通じ 286
シミュ@@ 286
隠@@ 286
英 286
ポー@@ 286
虫 286
監督 286
現われる 285
可@@ 285
不思議 285
しゅ@@ 285
造 285
委@@ 285
ジア 285
覚@@ 285
微@@ 284
あたくし 284
特殊 284
任@@ 284
ロック 284
あげる 284
渋@@ 284
遺伝 284
止め 284
熱 284
しん 283
よい@@ 283
さい 283
学会 283
意外 283
事故 283
制度 283
域 282
左側 282
プライ@@ 282
悪@@ 282
買い 282
広く 281
大量 281
深い 281
ナイフ 281
満足 281
洋@@ 281
お腹 281
歴 280
買う 280
庫 280
録音 279
対立 279
反映 279
察 279
緊@@ 279
診@@ 279
枠組み 278
ずれ 278
さて 278
右側 278
稿 278
使@@ 278
選ぶ 278
ゆっくり 278
縄 278
キロ@@ 277
首@@ 277
倉 277
詰め 277
上位 276
ーカー 276
計@@ 276
績 276
係り@@ 276
従@@ 276
させ 276
児童 276
送っ 276
観光 276
奈@@ 276
亡くなっ 276
司 276
統合 275
近似 275
スコ@@ 275
陰 275
テニ@@ 275
欲しい 275
経営 275
ＭＬ 274
サイズ 274
セグメント 274
電気 274
印 274
泊@@ 274
歩く 274
おら 273
道@@ 273
ケース 273
安 273
秋 273
駅@@ 273
ーム@@ 273
履@@ 273
いらっしゃる 273
万@@ 273
載っ 273
英@@ 273
乗り 273
育っ 273
側@@ 272
低く 272
ランダム 272
持続 272
既@@ 272
伝達 272
ポーズ 272
閉鎖 272
書き起こし 272
線形 272
まら 272
重視 272
イベント 272
辞 272
思考 272
母@@ 271
トレー@@ 271
正確 271
ｔ 271
世代 271
密@@ 271
開い 271
思え 271
ワイ 271
住宅 271
喉@@ 270
時々 270
本人 270
人口 270
勝 270
並べ 269
ぷ@@ 269
批@@ 269
イコール 269
首 269
しろ 269
政 269
撃 269
荷@@ 269
植@@ 269
トイ@@ 269
筒 269
土地 269
酷@@ 269
築 269
男女 268
囲@@ 268
わる 268
誤差 268
ドル 268
八百 268
及@@ 268
危険 268
コーヒ@@ 268
スティ@@ 268
喋っ 268
来@@ 268
小説 268
活 268
毎年 268
慢 268
サンプ@@ 267
誤 267
やや 267
始まり 267
飛び@@ 267
労働 267
葬@@ 267
筋@@ 266
復@@ 266
捨て 266
党 266
札 266
結び@@ 265
採用 265
仮 265
考@@ 265
実行 265
くだ@@ 265
終了 264
黄@@ 264
交換 264
かしら 264
沖@@ 264
金融 264
プロセス 263
易く 263
誘@@ 263
活用 263
刻 263
やし 263
サンプル 263
高齢 263
ーチ 263
あた@@ 263
ミュ@@ 263
借り 263
給@@ 263
養 263
医療 263
デシ@@ 262
手掛かり 262
サブ@@ 262
施設 262
泊 262
設 262
かす 262
展@@ 262
ラジオ 262
責@@ 262
従っ 261
終わら 261
想定 261
事務 261
置き 261
しゃ@@ 261
折@@ 261
ヤー 261
演奏 261
担当 261
貰@@ 261
測@@ 260
あん@@ 260
継@@ 260
捉@@ 260
ヤ 260
チェ@@ 260
管 259
保 259
我 259
牛@@ 259
ケ 257
リズム 257
武@@ 257
鉄@@ 257
潰@@ 257
店@@ 257
導@@ 256
採@@ 256
ビ 256
筆@@ 256
富@@ 256
ヨ@@ 256
血 256
崩@@ 255
ｋ 255
領 255
Ｕ 254
染 253
価 252
王 252
横@@ 251
車@@ 250
叩@@ 249
掲@@ 249
度@@ 248
岡 248
臨@@ 248
穴 248
到@@ 248
塩 248
許 248
短 247
壊 247
巻@@ 247
初 246
避@@ 246
医@@ 246
俺 246
洋 245
答 245
うま@@ 245
絵@@ 245
軒 245
賞 245
落@@ 244
吹@@ 244
栄@@ 244
呂 244
志@@ 244
ニ 244
勤 244
込@@ 243
添@@ 243
Ｋ@@ 242
ランス 242
昧 242
価@@ 242
選 242
煙 242
雪 242
報 241
創@@ 241
輪 241
豆 241
孫 241
更@@ 240
満 240
毛 240
馴@@ 239
形@@ 239
歪@@ 239
独 239
案@@ 239
認@@ 239
メリ@@ 239
蔵 239
遣@@ 239
縄@@ 239
局@@ 238
黒 238
派@@ 238
票 238
住 238
漫@@ 238
震 238
甲@@ 237
激@@ 236
月@@ 236
清@@ 236
甘@@ 236
更 236
色@@ 236
午@@ 236
司@@ 236
志 236
曖@@ 235
ｉ 235
塗@@ 235
夏@@ 235
付き@@ 235
弱 234
連 234
コン 234
寿@@ 234
標@@ 233
んな 233
っち 233
示@@ 232
データー@@ 232
しま@@ 232
岸 232
ｎ 232
格@@ 230
寧 230
夫@@ 230
必@@ 230
裏 230
クル 230
湯 230
尊@@ 230
終わ@@ 229
米@@ 229
望@@ 229
馬@@ 229
兄@@ 229
季@@ 229
忙@@ 229
純@@ 228
敵 228
昼 228
箱 228
筆 228
密 227
情@@ 227
Ｗ@@ 227
疑@@ 227
節@@ 227
療 227
暇 227
昼@@ 227
話し@@ 226
ソフ@@ 226
排@@ 226
稚 226
踊@@ 226
α 225
著@@ 225
争 225
糖 225
自 225
庭 225
難 225
裏@@ 224
依@@ 224
レス 224
握 224
久@@ 224
軍 224
盤 224
芸@@ 223
訪@@ 223
飾@@ 223
モ 222
延 222
史 222
患@@ 222
愛 222
干@@ 221
技 221
芝@@ 221
整 220
今@@ 220
覚 220
遍 220
謝 220
把@@ 219
の子 219
箇@@ 218
繰り返@@ 218
遭@@ 218
指 217
挿@@ 216
杯 216
救@@ 216
緩@@ 215
皮 215
背@@ 215
階@@ 215
充@@ 215
営 215
っしゃ@@ 215
隔 214
妙 214
抽@@ 214
膨@@ 213
刺@@ 213
かり 213
ェ@@ 213
ゾ@@ 213
症 213
溶@@ 213
渉 212
ゅう 212
屋@@ 212
畑 212
挙 212
紅@@ 212
爺 212
青 211
応 211
葉@@ 211
匹 211
損@@ 210
Ｊ 210
幹@@ 210
授 210
通 210
王@@ 210
華 210
修@@ 210
浸@@ 210
女@@ 209
頭@@ 209
陽 209
当た@@ 209
厚@@ 209
乾@@ 209
ズム 208
販@@ 207
範 207
翌@@ 207
めて 206
暮@@ 206
魅@@ 206
ぞ@@ 205
反 205
触 205
未 205
担 205
輸@@ 205
暑@@ 205
惑 205
唆 204
説@@ 204
湖 204
過ご@@ 204
嬉@@ 204
免@@ 204
ＭＭ 203
持@@ 203
導 202
様@@ 202
鮮 202
浅@@ 202
準 201
窓 201
肢 201
給 201
挨@@ 201
拶 201
造@@ 201
載@@ 200
算@@ 200
伊@@ 200
宮@@ 200
消 199
滑@@ 199
縮@@ 199
眠@@ 199
乱@@ 198
かけ 198
濃@@ 198
百@@ 198
欲@@ 198
鎖 197
坂 197
絶@@ 197
看@@ 197
塾 197
ミリ@@ 196
組 196
片 196
退 196
京@@ 196
権@@ 196
続 195
辿@@ 195
倒@@ 195
礎 194
散 194
ｊ 194
掃@@ 194
健 193
唇 193
届@@ 193
ッシ@@ 193
傾@@ 192
ュ 192
宣@@ 192
かる 192
禁@@ 192
健@@ 191
駆@@ 191
掴@@ 191
妥@@ 191
融@@ 191
椅@@ 191
ゃ@@ 190
陸 190
益 190
躍 190
堂 190
恥@@ 190
修 190
慣 190
妹 190
眼@@ 189
壇 189
旨 189
光@@ 188
ザー 188
契@@ 188
課@@ 188
ネット 188
儀 188
Ｑ 187
テレ@@ 187
超 187
維@@ 187
床 187
観@@ 187
玉@@ 187
質@@ 186
拾@@ 186
っち@@ 186
漢@@ 186
攻@@ 186
演 186
銀@@ 186
徐@@ 185
離 185
ぃ 185
去 185
詰@@ 185
息 185
井@@ 185
泳@@ 185
臓 185
練@@ 185
激 184
貧@@ 184
災 184
ロッ@@ 183
簡@@ 183
柔@@ 183
珍@@ 183
軽 183
預@@ 183
誕@@ 183
生ま@@ 182
角@@ 182
どん 182
埼@@ 182
果@@ 182
裁@@ 182
写 181
折 181
房 181
鍋 181
皇 181
劣@@ 180
駄 180
湧@@ 180
桜 180
財 180
脳@@ 179
ユー@@ 179
晩 179
巡@@ 179
爆@@ 179
途@@ 179
宇@@ 179
快 178
写@@ 178
羽@@ 178
詩 178
隊 178
妻 178
典@@ 177
吉@@ 177
巨@@ 177
財@@ 177
燃@@ 177
属@@ 176
セス 176
ワード 176
ぬ@@ 176
畳 176
震@@ 176
係@@ 176
暴@@ 176
締@@ 176
敬 176
祭@@ 176
液 175
卵 175
縦 174
送 174
貴@@ 174
敷@@ 174
涙 174
池 174
革@@ 174
矢@@ 173
裂 173
裕 173
ォ@@ 173
製 172
舌@@ 172
ダム 172
十@@ 171
構 171
ぅ 171
掘@@ 171
真 171
剤 171
肩 171
援 171
ッ 170
顕@@ 170
障 170
眺@@ 170
仮@@ 170
賀 170
天 170
資 170
施 169
境 169
挟@@ 169
がら 169
喫@@ 169
喧@@ 169
頼 169
嘘 169
祭 169
棒 168
覧 168
亡く@@ 168
億 168
放 168
養@@ 168
聞こ@@ 167
最 167
却 167
抗@@ 167
遇 167
思 167
校@@ 167
痛 167
酸@@ 166
換 166
軍@@ 166
柱 166
パ 165
ぺ@@ 165
廃@@ 165
慮 165
宿@@ 165
貸@@ 165
Ｗ 164
荒@@ 164
縁 164
印@@ 164
聖@@ 164
浴@@ 164
韻@@ 163
運 163
晴@@ 162
就@@ 162
々@@ 162
列@@ 162
符 162
料@@ 162
衆 162
池@@ 162
円@@ 161
らっしゃ@@ 161
編 161
ャ 161
義@@ 161
露 161
メーター 160
武 160
聞@@ 160
結 160
マン@@ 160
温 160
訳@@ 160
行な@@ 159
答@@ 159
器@@ 159
欧@@ 159
博@@ 159
宙 159
症@@ 159
末@@ 158
永@@ 158
富 158
居@@ 158
ピュ@@ 158
懐@@ 158
恵@@ 158
快@@ 157
怖 157
抗 156
訂@@ 156
負 156
研@@ 156
訴@@ 156
守 156
咲@@ 156
題@@ 155
鼻@@ 155
テ 155
ｉ@@ 155
単 155
擦@@ 155
腕 155
芋 155
性@@ 154
冊 154
議@@ 154
Ｙ@@ 154
嘩 154
怖@@ 154
友 154
菌 154
歯@@ 153
ｐ 153
絡@@ 153
草@@ 153
悔@@ 153
符@@ 152
憧@@ 152
診 152
病@@ 151
広 151
精@@ 151
っかり 151
した@@ 150
納 150
伝 150
餌 150
私@@ 150
公 150
勢@@ 150
駐@@ 150
識 149
了@@ 149
否 149
願@@ 149
狙@@ 149
介 149
摩 149
京 149
ハ 148
括 148
朗@@ 148
傷 148
述 148
候 148
戸@@ 148
両 147
双@@ 147
隣@@ 147
句@@ 147
企@@ 147
貢@@ 147
っぱ 147
欲 147
炭 147
θ 146
頻@@ 146
擬 146
航@@ 146
種@@ 146
恋@@ 146
匙 146
顎 145
骨@@ 145
購@@ 145
献 145
敢え@@ 145
洒@@ 145
乳@@ 144
ａ 144
誌 144
焦@@ 144
滞@@ 143
肉@@ 143
堀 143
津 143
ｒ 143
阿@@ 143
軟@@ 143
滑 142
併@@ 142
ｅ@@ 142
旧 142
総 141
軌@@ 141
藤@@ 141
ガ 141
ェ 141
とう 141
宮 141
硬@@ 141
戚 141
雇@@ 141
濁@@ 140
牛 140
因@@ 140
剥@@ 140
村@@ 140
耐@@ 140
迫@@ 140
能@@ 140
益@@ 140
汁 140
蒸@@ 140
費@@ 140
課 140
分か@@ 139
路@@ 139
徳 139
唯@@ 138
斜@@ 138
貫 138
備@@ 138
将@@ 138
施@@ 137
雄 137
衝@@ 137
ヌ@@ 136
励@@ 136
俳@@ 136
催 136
胸 136
煮@@ 136
瞭 135
ゥ 135
飽@@ 135
擦 135
芸 134
バ 134
郵@@ 134
在@@ 134
荷 134
官@@ 134
酒@@ 134
腹 134
著 133
孤@@ 133
粋 133
握@@ 133
科@@ 133
綴@@ 133
枠 132
求@@ 132
雲 132
刊 132
炒@@ 132
載 131
処 131
偶@@ 131
薬@@ 131
盾 131
走 131
処@@ 131
摩@@ 131
忘@@ 131
ケーション 131
松 131
痩@@ 131
敬@@ 131
斐 131
群@@ 131
汗 131
優 130
煮 130
嫁 130
皿 130
樹 130
交 129
販 129
ゆる 129
誇@@ 129
ｘ 129
借@@ 129
宝@@ 129
圏 128
途 128
剣 128
供@@ 128
網@@ 128
街@@ 128
糸 128
係 128
兵@@ 128
稲@@ 128
４ 127
眼 127
おん@@ 127
噛@@ 127
蓄@@ 127
仏@@ 127
諸 127
遠 127
線@@ 126
きち@@ 126
矛@@ 126
約@@ 126
唱 126
毛@@ 126
濯 126
城@@ 126
飯 126
衣 126
にく@@ 125
丘 125
ヌ 125
述@@ 125
褒@@ 125
湾 125
籍 125
券 125
暖@@ 125
冒@@ 124
姿@@ 124
仙@@ 124
秘@@ 124
弥@@ 124
岩@@ 124
巻 124
森@@ 124
防 124
０@@ 123
承 123
移 123
ノ 123
河@@ 123
抵 123
医 123
副 123
毒 123
可 122
ｍ 122
奥@@ 122
即@@ 122
援@@ 122
掻@@ 122
失 121
皮@@ 121
紛@@ 121
却@@ 121
島@@ 121
旅@@ 121
越 121
酬 121
コール 120
ころ 120
−@@ 120
枝 120
疎@@ 120
漬@@ 120
・@@ 119
瓶 119
便@@ 119
該@@ 119
なた 119
腰 119
尾@@ 119
わり@@ 119
税 119
トル 119
審@@ 119
衛@@ 119
滅 118
スポー@@ 118
庁 118
避 118
決 118
幹 118
慣@@ 117
ただ@@ 117
注 117
吉 117
邪 117
革 117
傷@@ 117
脂@@ 117
缶@@ 117
ホル@@ 116
旦 116
兼@@ 116
墓 116
請 116
客@@ 116
故 116
披@@ 116
恵 116
磁 115
いか@@ 115
Δ@@ 115
待 115
帳 115
溢@@ 115
遣 115
稼@@ 115
貯@@ 115
靴 115
仲 115
浜 115
麦 115
大き@@ 114
乱 114
玄@@ 114
標 114
被 114
殺 114
練 114
諦@@ 114
疑 114
狂@@ 114
章 114
繁@@ 114
傍 113
冗@@ 113
複 113
ボ 113
っくり 113
紀@@ 113
築@@ 113
概 113
凝@@ 113
興 113
謙@@ 113
幸 113
栗 112
汎@@ 112
俗 112
徹@@ 112
募@@ 112
偉@@ 112
らか 111
響 111
机 111
非@@ 111
里 111
船@@ 111
響@@ 111
やっぱ@@ 111
肝@@ 110
岐 110
粗@@ 110
吐@@ 110
遂@@ 110
漏@@ 109
橋@@ 109
なか@@ 109
承@@ 109
技@@ 109
託 109
繁 108
ナイ@@ 108
なる@@ 108
諸@@ 108
展 108
コミュニ@@ 108
氷 108
窪 108
故@@ 108
４@@ 107
査 107
試 107
ｓ 107
忠@@ 107
らく 107
奇@@ 107
鳥@@ 107
剰 107
麻@@ 107
堅@@ 107
杉 107
祉 107
浦@@ 107
均@@ 106
静 106
窺@@ 106
テキ@@ 106
尽@@ 106
弁 106
象@@ 106
畿 106
ホ 106
磁@@ 105
系@@ 105
招@@ 105
衛 105
垂@@ 105
ィ 105
申@@ 105
執@@ 105
餅 105
マイナ@@ 104
フィル@@ 104
室@@ 104
邪@@ 104
篭@@ 104
ジオ 104
告@@ 104
眠 104
抵@@ 104
勇@@ 104
譲 104
婚 104
茹@@ 104
肌 104
損 103
あー@@ 103
粧 103
礼@@ 103
噴@@ 103
肪 103
特 102
省@@ 102
越し 102
肯@@ 102
摂@@ 102
およ@@ 102
欄 102
喉 102
棋 102
荻@@ 102
衣@@ 102
沸@@ 102
塩@@ 102
彫@@ 102
夢@@ 102
輪@@ 101
研 101
軟 101
譲@@ 101
ｙ 101
使 101
沈@@ 101
ぷ 100
興@@ 100
５ 100
透@@ 100
ターン 100
賑@@ 100
癒@@ 100
沼 100
爆 100
魔 99
球@@ 99
尋@@ 99
挑@@ 99
秋@@ 99
美 99
魚@@ 99
週@@ 99
鹿@@ 99
謝@@ 99
謡 98
２@@ 98
争@@ 98
波@@ 98
髪 98
江@@ 98
父@@ 98
操 98
債@@ 98
炭@@ 98
賃 98
由@@ 97
β 97
韻 97
伺@@ 97
停@@ 97
ユ 97
元@@ 97
刷 97
寒 97
賛@@ 97
惑@@ 97
郷 97
揚@@ 97
妊@@ 97
炊@@ 97
ｃ 96
刻@@ 96
羅 96
胞 96
ワーク 96
潟 96
噌 96
福 96
酵 96
了 95
雑 95
網 95
縦@@ 95
投 95
板@@ 95
哲@@ 95
針@@ 95
緑@@ 94
基づ@@ 94
環 94
癖 94
貝 94
ポ 94
ｕ@@ 94
替 94
去@@ 94
髪@@ 94
往@@ 94
揮 94
殴@@ 94
宴 94
駒@@ 94
輿 94
ｄ@@ 93
ぱ 93
ｄ 93
リス 93
媒@@ 93
腐 93
仏 93
互 92
宜 92
頂@@ 92
ネ 92
露@@ 92
燥 92
ゼ 91
括@@ 91
ｆ@@ 91
条 91
鍵 91
県@@ 91
鑑@@ 91
御@@ 91
範@@ 91
某 91
デ 90
尤@@ 90
淀@@ 90
黙@@ 90
端@@ 90
Ｚ 90
控@@ 90
緒 90
豆@@ 90
竹 90
規 90
考 90
奉@@ 90
疇 90
阪@@ 90
腸 90
棺 90
膜 89
Ｑ@@ 89
償 89
捨@@ 89
鍛@@ 89
季 89
与@@ 89
酔@@ 89
ソ 88
ちら 88
セグ@@ 88
検 88
モデ@@ 88
豪@@ 88
春@@ 88
熟@@ 88
弾 88
銭 88
貨 88
培 88
縁@@ 87
杉@@ 87
基 87
臣 87
児@@ 87
映 87
棄 87
栽@@ 87
婦@@ 87
顧@@ 87
潮 87
嫌@@ 87
欧 87
脈 86
瀬 86
３@@ 86
緯 86
評 86
巣 86
竹@@ 86
１@@ 85
徳@@ 85
完 85
彩 85
坊 85
ｂ 85
っきり 85
閣 85
縫@@ 85
缶 85
泳 85
違 84
幕 84
盗@@ 84
鮮@@ 84
陸@@ 84
炎 84
略@@ 83
久 83
ワ 83
砂 83
勘@@ 83
楕@@ 83
っぱ@@ 83
討@@ 83
周 83
祝@@ 83
稽@@ 83
恋 83
囲 82
認 82
鼓 82
般 82
ペ 82
税@@ 82
源@@ 82
屈 82
携@@ 82
鉛@@ 82
岩 82
蜜 82
ーター@@ 81
継 81
適 81
覗@@ 81
尤 81
襲 81
羽 81
Δ 81
錯@@ 81
苛@@ 81
ヘル@@ 81
灯 81
鎌@@ 81
蹴@@ 81
刑@@ 81
臭@@ 81
虐@@ 81
胃 81
剣@@ 81
雨@@ 81
乏 81
齢 80
際@@ 80
システ@@ 80
樹@@ 80
労@@ 80
肺 80
瞬 80
宝 80
霊 80
拒@@ 80
河 80
敷 80
篭 80
屈@@ 79
太 79
滞 79
把 79
克@@ 79
殿 79
徴 79
拍@@ 79
泉 79
星@@ 79
漁@@ 79
素晴@@ 79
療@@ 79
儲@@ 79
暖 79
噂 79
因 78
遥@@ 78
茎 78
刈@@ 78
刀 78
覆@@ 78
早 78
陶@@ 78
菜 78
耳@@ 77
倍@@ 77
易@@ 77
浦 77
吸 77
栄 77
丁 77
娠 77
陥@@ 76
鳴 76
侵@@ 76
遡@@ 76
たく@@ 76
振り返@@ 76
慌@@ 76
華@@ 76
磨@@ 76
彼@@ 76
醤@@ 76
膝 75
潔 75
江 75
腹@@ 75
阻@@ 75
祈@@ 75
裁 75
丈 75
裕@@ 75
携 74
敏@@ 74
棄@@ 74
銅@@ 74
坂@@ 74
酢 74
況 74
寮 74
逸@@ 73
振 73
協 73
厚 73
跳@@ 73
友@@ 73
府@@ 73
テル 73
須 73
浜@@ 73
庶@@ 73
蚊 73
ｔ@@ 72
仕 72
昆@@ 72
那 72
力@@ 72
終 72
帰 72
陣@@ 72
衰 71
ぽ 71
衰@@ 71
憩 71
擬@@ 71
漠@@ 71
称@@ 71
済 71
賭@@ 71
駁 71
憲@@ 71
浴 71
ぇ 70
効 70
硬 70
欠 70
ｌ 70
攻 70
いわ@@ 70
舗 70
ｘ@@ 70
索 70
ピア@@ 70
肥@@ 70
寺@@ 70
蔵@@ 70
倉@@ 70
ぅ@@ 69
微 69
顔@@ 69
吊@@ 69
株@@ 69
引 69
留 69
据@@ 69
梅 69
由 69
脇 69
羨@@ 69
隅 68
斜 68
ゲ 68
θ@@ 68
趣@@ 68
補 68
善@@ 68
勿@@ 68
っく@@ 67
貝@@ 67
爪 67
サ 67
閉 67
浪@@ 67
叙@@ 67
睡@@ 67
蛇 67
博 67
慰@@ 67
背 67
旬 67
涯 67
舎 67
雪@@ 67
亡 67
漂@@ 67
童@@ 66
詩@@ 66
亀 66
．@@ 66
辛@@ 66
付 66
芽 66
牧@@ 66
ヨー@@ 66
ｈ 65
撥@@ 65
旦@@ 65
だん 65
植 65
盛 65
奪@@ 65
併 65
募 65
だい@@ 64
鋭@@ 64
桁 64
葬 64
径 64
汲@@ 64
裸 64
序@@ 64
詠@@ 64
陳@@ 64
願 64
敗@@ 64
拘@@ 63
精 63
塁 63
鈴@@ 63
鉢 63
秀 63
架@@ 63
氷@@ 63
津@@ 63
盟 63
歓@@ 63
寿 63
塔 63
葛@@ 63
冬@@ 63
湯@@ 63
拭@@ 63
狭 62
奮 62
グルー@@ 62
γ 62
岡@@ 62
ヴ@@ 62
幾@@ 62
棚 62
尻@@ 62
繊@@ 62
暗 62
期@@ 62
香 62
徒@@ 62
痴@@ 62
叱@@ 62
徒 62
狩@@ 62
帝@@ 62
璧 61
隔@@ 61
カテゴ@@ 61
なん@@ 61
累@@ 61
漢 61
深 61
厄@@ 61
碗 61
聖 61
茂@@ 61
酸 61
塞 61
卒 61
師@@ 61
灰 61
揉@@ 61
丈夫 61
窓@@ 60
誰@@ 60
小さ@@ 60
催@@ 60
腐@@ 60
殻 60
谷@@ 60
遮@@ 60
熟 60
念@@ 60
服@@ 60
之@@ 60
浄@@ 60
袈@@ 60
裟 60
恩@@ 60
胃@@ 60
襲@@ 60
監@@ 60
破 60
殖 60
漸@@ 59
繰@@ 59
しか@@ 59
郊@@ 59
須@@ 59
僚 59
刑 59
逐@@ 58
似@@ 58
云@@ 58
雌 58
枝@@ 58
尻 58
射@@ 58
賢@@ 58
紐 58
滴 58
油@@ 58
腫@@ 58
湿@@ 58
弦 57
ｗ@@ 57
銅 57
えー@@ 57
箸 57
７ 57
猿 57
犬@@ 57
存@@ 57
叫@@ 57
帯@@ 57
涼@@ 57
膚 57
札@@ 57
幌 57
凌@@ 57
泡 57
熊@@ 56
署 56
譜 56
副@@ 56
慎@@ 56
紀 56
迎 56
祖 56
盆 56
亜 56
たま@@ 56
豚 56
豚@@ 56
的@@ 55
該 55
ｌ@@ 55
きゃ 55
墓@@ 55
偏 55
推 55
突 55
境@@ 55
受 55
輝@@ 55
犠@@ 55
牲 55
秀@@ 55
沖 55
災@@ 55
蓄 55
獣 55
祥@@ 55
腔 54
銀 54
掘 54
ｆ 54
寛@@ 54
務@@ 54
イメ@@ 54
慶@@ 54
飯@@ 54
脚@@ 54
忍@@ 54
卵@@ 54
羊 54
罰 54
悔 54
卓 54
馳@@ 54
刃@@ 54
準@@ 53
郭 53
ｎ@@ 53
複@@ 53
搬 53
随@@ 53
廊@@ 53
くし 53
琉@@ 53
暴 53
漱@@ 53
庭@@ 53
恒@@ 52
渡 52
紙@@ 52
史@@ 52
セカ@@ 52
遷 52
怠@@ 52
ａ@@ 52
奇 52
粘@@ 52
ゥ@@ 52
摂 52
皇@@ 52
暑 52
闘@@ 52
竜 52
尿 52
致 51
儀@@ 51
箱@@ 51
幅@@ 51
筌 51
まい@@ 51
アメリ@@ 51
坦 51
嶋 51
織@@ 51
懸@@ 51
ｊ@@ 51
憎@@ 51
丹 51
鶴 51
幡 51
休 51
撒@@ 51
漕@@ 51
娩 51
贈@@ 51
並 51
逮@@ 51
捕 51
艦 51
畳@@ 50
漠 50
濡@@ 50
闘 50
竿 50
敗 50
盗 50
梅@@ 50
帽@@ 49
セ 49
胆 49
唐@@ 49
隙@@ 49
拝@@ 49
梨 49
幕@@ 49
綿 49
伏@@ 49
釈 49
傍@@ 49
岳 49
撤@@ 49
条@@ 49
泥@@ 49
嬢 49
里@@ 49
ベ 48
予 48
ョ 48
濫 48
透 48
柿 48
仰 48
宅@@ 48
熊 48
黄 48
犯 48
悟 48
潤@@ 48
棒@@ 47
柴@@ 47
喚@@ 47
秒@@ 47
のー 47
笹@@ 47
卓@@ 47
随 47
澄@@ 47
朴 47
疎 47
垣 47
林@@ 47
聞 47
伐@@ 47
架 47
穫 47
尚@@ 47
請@@ 47
挫@@ 47
贅@@ 47
枯@@ 47
濁 46
汰 46
跨@@ 46
訓@@ 46
叶@@ 46
烈 46
肺@@ 46
仰@@ 46
酷 46
薄 46
旗 46
騰 46
誠@@ 46
桜@@ 46
焚@@ 46
雄@@ 46
採 46
麺 46
奏 45
叙 45
脱 45
ピ 45
商 45
息@@ 45
ｙ@@ 45
槽 45
泡@@ 45
穏@@ 45
匠 45
塵 45
兵 45
柏 45
簿 45
醒 45
セカンド 44
郡 44
っき 44
賞@@ 44
淡@@ 44
峰 44
冠@@ 44
株 44
嘆 44
騙@@ 44
腰@@ 44
謳@@ 44
講 44
威@@ 44
固 44
捌@@ 44
鮫 44
訴 44
盆@@ 44
盲@@ 43
ｓ@@ 43
建 43
場@@ 43
浪 43
丹@@ 43
昇@@ 43
番@@ 43
威 43
墨 43
沙@@ 43
坊@@ 43
貿@@ 43
凶@@ 43
銃 43
粉@@ 43
ァ 42
ヒ 42
刃 42
晩@@ 42
歴@@ 42
粒@@ 42
曰@@ 42
鶴@@ 42
釈@@ 42
滝 42
寸@@ 42
廷 42
薦 42
訓 42
鷺@@ 42
縛@@ 42
黙 42
惨 42
才 42
雷 42
赴@@ 42
たま 42
ドイ@@ 42
絶 42
霊@@ 42
湘@@ 42
灰@@ 41
飴 41
ぃ@@ 41
謎 41
鋳@@ 41
斉 41
秩@@ 41
ぺ 41
囚@@ 41
即 41
柚 41
若 41
肘 41
霞 41
艇 41
唱@@ 40
醸@@ 40
ぇ@@ 40
迫 40
壁@@ 40
維 40
獄 40
鬱@@ 40
啓@@ 40
郷@@ 40
貫@@ 40
菊 40
否@@ 40
召@@ 40
惜@@ 40
刷@@ 40
呆 40
老 40
扉 40
脂 40
棟 40
娯@@ 40
陣 40
糞 40
痒@@ 40
環@@ 40
８ 39
紫 39
抄@@ 39
増 39
貴 39
滅@@ 39
μ 39
ｇ@@ 39
隣 39
鐘 39
卒@@ 39
件@@ 39
塞@@ 39
善 39
佐 39
兆 39
弟@@ 39
喩 39
藍@@ 39
隅@@ 39
肩@@ 39
雛 39
才@@ 39
潮@@ 39
訟 39
函@@ 39
頂 38
確 38
貨@@ 38
序 38
梗@@ 38
夕 38
５@@ 38
どん@@ 38
第@@ 38
綻 38
管@@ 38
孝@@ 38
摘@@ 38
苦 38
買 38
杖 38
授@@ 38
陽@@ 38
賄@@ 38
歳@@ 38
猛@@ 38
険 38
升 38
循@@ 37
包 37
昨 37
索@@ 37
鑑 37
将 37
封@@ 37
尊 37
袖 37
枕 37
功@@ 37
り返@@ 37
遊 37
征@@ 37
察@@ 37
巣@@ 37
秘 37
駿 37
蜜@@ 37
傘 36
妨@@ 36
ちょう@@ 36
ぴ 36
ｐ@@ 36
を@@ 36
暦 36
茂 36
ｗ 36
稀 36
耐 36
菜@@ 36
猟 36
掃 36
碁 36
充 36
芦@@ 36
虚@@ 36
脅@@ 36
垣@@ 36
託@@ 36
甘 36
巾 36
昔@@ 36
奨@@ 36
鬱 36
糖@@ 36
賃@@ 36
型@@ 36
凍 36
銭@@ 36
笛 35
ホルマ@@ 35
詐@@ 35
９ 35
６ 35
卑@@ 35
伏 35
鈍@@ 35
奏@@ 35
揚 35
頷@@ 35
麗 35
檻 35
刊@@ 35
董 35
僧 35
床@@ 35
食べ@@ 35
覆 35
邸 35
領@@ 35
農 35
辛 35
漆 35
荘 35
鷹 35
洞@@ 34
吟@@ 34
従 34
門@@ 34
粒 34
汽@@ 34
唐 34
ｑ 34
靴@@ 34
菊@@ 34
岐@@ 34
之 34
掌 34
鞄 34
宗 34
蓮 34
鹿 34
闇 34
訪 34
罪@@ 34
嵐 34
樽 34
呂@@ 34
竃 34
稲 34
銘 34
ｂ@@ 33
障@@ 33
隆@@ 33
酔 33
喪@@ 33
爽@@ 33
苑 33
甲 33
旧@@ 33
憂@@ 33
綱 33
択 33
肝 33
毒@@ 33
盤@@ 33
舗@@ 33
凄@@ 33
ァ@@ 33
魔@@ 33
園@@ 33
懲@@ 33
陰@@ 32
含 32
姓 32
瀬@@ 32
矩@@ 32
荒 32
嗜@@ 32
飾 32
拓 32
没 32
悉@@ 32
蜆@@ 32
愉@@ 32
炉 32
操@@ 32
刀@@ 32
坪 32
抹@@ 32
痢 32
耕 32
式@@ 32
旋 32
魂 32
旋@@ 31
ｍ@@ 31
λ 31
鐸 31
材@@ 31
なか 31
っとー 31
具@@ 31
参 31
如@@ 31
鋸 31
還@@ 31
姫 31
祥 31
曇 31
童 31
還 31
培@@ 31
とて@@ 31
位@@ 31
胎@@ 31
痴 31
茨@@ 31
倫@@ 31
撫@@ 31
畜 31
捜@@ 30
ｒ@@ 30
則@@ 30
づ 30
堂@@ 30
雲@@ 30
如 30
桃 30
べく 30
濃 30
需@@ 30
甚@@ 30
偽 30
享@@ 30
脚 30
蓋@@ 30
液@@ 30
蒲@@ 30
債 30
蛙 30
牌 30
騎@@ 30
９@@ 29
拙@@ 29
コンピュ@@ 29
裸@@ 29
緻 29
ある@@ 29
掬@@ 29
墳 29
髭 29
遺 29
這@@ 29
剖 29
洪@@ 29
嗅@@ 29
枚@@ 29
翼 29
虚 29
笠@@ 29
愚@@ 29
航 29
院@@ 29
氾@@ 29
輸 29
駒 29
湾@@ 29
鴨 29
晶 29
猶@@ 29
股 29
諏@@ 29
槍 29
Λ 28
セント 28
蝸@@ 28
さま@@ 28
たば@@ 28
τ 28
乏@@ 28
飢@@ 28
霧 28
詫@@ 28
程@@ 28
琴 28
砲 28
彦 28
嘆@@ 28
殊@@ 28
詞@@ 28
烏@@ 28
孫@@ 28
鬼@@ 28
諾 28
鍵@@ 28
雛@@ 28
臓@@ 28
康 28
琵@@ 28
琶 28
臭 28
紅 28
蒔@@ 28
崖 28
弥 28
蔓 28
埃 28
ｅ 27
銘@@ 27
余 27
ｋ@@ 27
Ｚ@@ 27
胸@@ 27
ｃ@@ 27
搬@@ 27
為@@ 27
究@@ 27
阜 27
恨@@ 27
僧@@ 27
煩@@ 27
坪@@ 27
沢@@ 27
陥 27
疫 27
誘 27
智 27
虫@@ 27
栗@@ 27
侶 27
仁 27
泥 27
戒 27
惨@@ 27
撃@@ 27
箪@@ 27
糊 27
促 26
拗@@ 26
撲 26
栓 26
綿@@ 26
衡 26
磯 26
挽@@ 26
灯@@ 26
柳 26
隆 26
壮@@ 26
勘 26
恥 26
害@@ 26
エージェ@@ 26
謀 26
尖@@ 26
瓦 26
那@@ 26
丼 26
困 26
絆 26
浄 26
耕@@ 26
窯 26
偵 26
繍 26
誓@@ 26
需 26
込 26
嘗@@ 25
尖 25
τ@@ 25
麓 25
紫@@ 25
ぉ 25
ｇ 25
だん@@ 25
致@@ 25
策@@ 25
咄@@ 25
仁@@ 25
献@@ 25
偽@@ 25
邦 25
駄@@ 25
倣@@ 25
筑@@ 25
束@@ 25
サービ@@ 25
駐 25
窟 25
栃@@ 25
晒@@ 25
厳 25
芽@@ 25
勉 25
敵@@ 25
釜 25
偉 25
蘇@@ 25
班 25
覇 25
笥 25
酌 25
焼 25
ざい 24
っき@@ 24
巧@@ 24
弊@@ 24
っつ@@ 24
疾@@ 24
砕@@ 24
ｖ 24
迦 24
柳@@ 24
堪@@ 24
かし@@ 24
廃 24
芝 24
率@@ 24
宛@@ 24
ネット@@ 24
錐 24
恣@@ 23
虎@@ 23
淵 23
拠@@ 23
詮 23
沼@@ 23
俊@@ 23
哀@@ 23
宰 23
藻 23
鎮@@ 23
清 23
懇@@ 23
宴@@ 23
敲 23
婚@@ 23
措@@ 23
底@@ 23
停 23
腕@@ 23
慨 23
菩@@ 23
峠 23
壷 23
亡@@ 23
柵 23
凍@@ 23
獣@@ 23
煎@@ 23
純 23
郊 22
勾@@ 22
溝 22
咳 22
永 22
秤 22
ｏ 22
Σ 22
矯@@ 22
貌 22
扇 22
轄 22
寸 22
打 22
姉@@ 22
杏@@ 22
冊@@ 22
怪 22
漁 22
喫 22
幽@@ 22
蝶 22
籐 22
閾 21
ぁ@@ 21
支 21
矢 21
趣 21
搭@@ 21
双 21
邦@@ 21
眩@@ 21
奨 21
羅@@ 21
Γ 21
伎 21
亀@@ 21
憲 21
堀@@ 21
訂 21
抄 21
冠 21
捨 21
垂 21
煉@@ 21
聾 21
痺 21
腎@@ 21
鬼 21
筏 21
罰@@ 21
舞 21
呟@@ 21
猛 21
醍@@ 21
醐 21
鹸 21
礁 21
嫁@@ 21
禁 21
それ@@ 20
垢 20
脈@@ 20
毎 20
幻@@ 20
梁 20
μ@@ 20
患 20
往 20
衆@@ 20
獲@@ 20
芳@@ 20
悟@@ 20
イベ@@ 20
串 20
繹 20
誠 20
饅@@ 20
蛍@@ 20
桑@@ 20
腿 20
躊@@ 20
躇 20
兆@@ 20
塀 20
窒@@ 20
旭@@ 20
抜 20
獲 20
鞭 20
＆@@ 20
逝@@ 20
戯@@ 20
竜@@ 20
芯 20
懐 20
ぢ@@ 20
楊@@ 20
涼 20
耗 20
釘 20
鯉 20
漉@@ 20
惧 19
俣 19
暫@@ 19
咽@@ 19
パソ@@ 19
旺@@ 19
窪@@ 19
簡 19
めん 19
戴 19
軒@@ 19
播 19
曽@@ 19
想@@ 19
吠@@ 19
界@@ 19
弘@@ 19
彩@@ 19
閲@@ 19
讃@@ 19
審 19
莫@@ 19
尺 19
ゾ 19
釜@@ 19
呈 19
諭@@ 19
彰 19
雅@@ 19
些@@ 19
跡@@ 19
亭@@ 19
疹 19
封 19
暇@@ 19
胴 19
７@@ 18
凸 18
額@@ 18
匹@@ 18
桶 18
帝 18
稽 18
鼓@@ 18
櫛@@ 18
乖@@ 18
ｚ 18
敏 18
ｕ 18
淡 18
穂 18
弊 18
斉@@ 18
忌@@ 18
登 18
詣@@ 18
霞@@ 18
士@@ 18
宗@@ 18
申 18
躍@@ 18
艘 18
壇@@ 18
菱 18
氏@@ 18
珠 18
燃 18
己 18
弓 18
戯 18
蛇@@ 18
偶 18
占 18
薩 18
豪 18
窃@@ 18
創 18
纂 18
翌 18
裂@@ 18
碑 18
免 18
硫@@ 18
駕@@ 18
牡@@ 18
きれ 18
帆 18
賓 18
鳩@@ 18
拐 18
織 18
閑@@ 18
惚@@ 18
到 18
糧 18
模 18
鳩 18
鉱@@ 18
苗 18
閥 18
扇@@ 17
峻 17
鈴 17
ぉ@@ 17
蹄 17
柏@@ 17
呼 17
ξ 17
頚@@ 17
桃@@ 17
党@@ 17
徴@@ 17
痕@@ 17
δ 17
鈔 17
煙@@ 17
憤@@ 17
荘@@ 17
篇 17
誉 17
禅 17
桑 17
潤 17
署@@ 17
稚@@ 17
卸@@ 17
喘@@ 17
冷 17
薪 17
屑 17
銛 17
征 17
港@@ 17
悠@@ 17
穴@@ 16
迅@@ 16
淘@@ 16
ぁ 16
α@@ 16
楼 16
洞 16
也 16
訣 16
喜 16
屏@@ 16
智@@ 16
ｏ@@ 16
駆 16
闇@@ 16
蛍 16
尽 16
忙 16
奮@@ 16
真ん@@ 16
椎 16
洗 16
Λ@@ 16
巧 16
励 16
羊@@ 16
絹 16
穀@@ 16
戒@@ 16
拓@@ 16
珠@@ 16
譜@@ 16
堆@@ 16
錦@@ 16
虜 16
萎@@ 16
拳 16
鱗 16
拝 16
姪 16
諺 16
丘@@ 16
陵 16
栽 16
猟@@ 16
賂 16
π 15
裾 15
凝 15
擁@@ 15
択@@ 15
吃@@ 15
鋭 15
鎖@@ 15
Φ@@ 15
ヨ 15
ぢ 15
笑 15
蒙 15
甥 15
廊 15
隙 15
藩 15
豊 15
曇@@ 15
借 15
宇 15
剛 15
聚 15
斎 15
襟 15
イント 15
峡 15
茅@@ 15
泄 15
迷 15
館@@ 15
姻 15
隈 15
貸 15
唾@@ 15
壌 15
槙@@ 15
庇@@ 15
没@@ 15
警 15
勒 15
洲 15
妙@@ 15
釧@@ 15
壕 15
楢@@ 15
録@@ 14
芦 14
以 14
赦 14
遅 14
斧 14
幣 14
紋 14
η 14
遜@@ 14
蔽 14
ｈ@@ 14
φ 14
暢 14
庸 14
はり 14
号@@ 14
崇@@ 14
恩 14
薮 14
舎@@ 14
倫 14
炎@@ 14
乙 14
遍@@ 14
祐@@ 14
ォ 14
哉 14
劣 14
蔓@@ 14
鉱 14
腺 14
篤 14
君@@ 14
膳 14
っぱい 14
夷 14
勇 14
撲@@ 14
呪@@ 14
囃@@ 14
紋@@ 14
揺 14
姥@@ 14
陛@@ 14
態@@ 14
酢@@ 14
鴻@@ 14
蘭 14
粥 14
拳@@ 14
凄 14
苔 14
骸 14
梱@@ 14
奴@@ 14
隷 14
追 13
拮@@ 13
凹@@ 13
ージェ@@ 13
怒 13
σ@@ 13
削 13
辰@@ 13
σ 13
倣 13
樺@@ 13
凡@@ 13
もし@@ 13
枠@@ 13
艶 13
鞠 13
呉@@ 13
版@@ 13
ざま 13
吹 13
晶@@ 13
抱 13
康@@ 13
窮@@ 13
乾 13
聾@@ 13
旗@@ 13
韓 13
胴@@ 13
縛 13
弓@@ 13
堅 13
互@@ 13
臨 13
渕 13
粗 13
帳@@ 13
庄 13
踊 13
Β 13
艦@@ 13
術@@ 13
焉 13
爪@@ 13
侍 13
賠@@ 13
暮 13
隊@@ 13
岬 13
騒 13
渇@@ 13
餌@@ 13
昭@@ 13
護@@ 13
葺@@ 13
鯉@@ 13
紳@@ 13
賄 13
捜 13
鴬@@ 13
ｖ@@ 12
φ@@ 12
宍@@ 12
妻@@ 12
寂 12
皆@@ 12
渦@@ 12
粛 12
雷@@ 12
鋼 12
刺 12
８@@ 12
裾@@ 12
塚@@ 12
儒@@ 12
賊 12
亭 12
閑 12
翻@@ 12
沌 12
愁 12
頓@@ 12
桂 12
賀@@ 12
腫 12
銃@@ 12
紐@@ 12
雌@@ 12
陀 12
岸@@ 12
炊 12
督@@ 12
喝 12
麦@@ 12
凡 12
貪@@ 12
芭@@ 12
蕉 12
虐 12
撹@@ 12
庄@@ 12
桂@@ 12
悩 12
孝 12
妊 12
渦 12
址 12
篠@@ 12
噂@@ 12
猪 12
舶 12
曹 12
歓 12
糠 12
唾 12
麹 12
酵@@ 12
頬 12
勲@@ 12
蛾 12
騨 12
泰@@ 12
蝉 12
錆@@ 12
墜@@ 12
央@@ 12
墨@@ 12
煤@@ 12
盲 11
俵 11
辰 11
菱@@ 11
膏 11
賛 11
孔 11
饅 11
巳 11
菅@@ 11
飛 11
巷 11
几@@ 11
詠 11
臆@@ 11
畏@@ 11
緻@@ 11
影@@ 11
隻 11
藍 11
蓮@@ 11
貞@@ 11
撰 11
肖@@ 11
砲@@ 11
鯨 11
劫 11
揆 11
溝@@ 11
梯@@ 11
尚 11
宏@@ 11
狂 11
靡 11
慢@@ 11
鰹@@ 11
伎@@ 11
椎@@ 11
挫 11
泌 11
妖@@ 11
斡@@ 11
勃@@ 11
怯@@ 11
聚@@ 11
尺@@ 11
薪@@ 11
棟@@ 11
紬 11
捻@@ 11
鍾@@ 11
疱@@ 11
慕@@ 11
妄@@ 11
睡 11
桟@@ 11
袴 11
杏 11
湖@@ 11
隷@@ 11
λ@@ 10
奪 10
朗 10
矛 10
鍬 10
蛮@@ 10
伐 10
Σ@@ 10
験 10
層@@ 10
憑 10
ν 10
γ@@ 10
β@@ 10
捗 10
凸@@ 10
ヘ 10
亜@@ 10
偲@@ 10
侍@@ 10
龍@@ 10
潔@@ 10
嘘@@ 10
緒@@ 10
呈@@ 10
賜@@ 10
残 10
櫛 10
躯 10
伽@@ 10
恭@@ 10
詮@@ 10
禄 10
綱@@ 10
僭@@ 10
蛮 10
蝶@@ 10
虎 10
コミュ@@ 10
頓 10
酎 10
欺 10
扁@@ 10
箋 10
癒 10
汁@@ 10
炉@@ 10
餓 10
斬@@ 10
俗@@ 10
律@@ 10
猫@@ 10
昭 10
芥@@ 10
是@@ 10
萩@@ 10
靖@@ 10
穂@@ 10
呆@@ 10
席@@ 10
祓@@ 10
宕 10
駿@@ 10
棺@@ 10
狗 10
憩@@ 10
啓 10
堤 10
渓@@ 10
胆@@ 10
忌 10
磐 10
肥 10
婿 10
畔 10
旭 10
枢 9
朱 9
竪@@ 9
倭@@ 9
ω@@ 9
ｑ@@ 9
剛@@ 9
繕@@ 9
曜@@ 9
鍋@@ 9
臼@@ 9
談@@ 9
麗@@ 9
雇 9
糸@@ 9
彙 9
章@@ 9
釘@@ 9
萩 9
迂@@ 9
梵@@ 9
寛 9
媛 9
机@@ 9
祇@@ 9
辺@@ 9
ρ 9
脆@@ 9
眉@@ 9
拭 9
幻 9
痰 9
供 9
遂 9
踏 9
螺@@ 9
就 9
桐 9
厄 9
綾@@ 9
雅 9
滋@@ 9
柩 9
淳@@ 9
蒼 9
鯛 9
晴 9
冴@@ 9
奔@@ 9
塾@@ 9
湿 9
晋@@ 9
紺 9
蘇 9
斗 9
幌@@ 9
紗@@ 9
腎 9
姪@@ 9
蒲 9
鉢@@ 9
函 9
崖@@ 9
鈑@@ 9
カテ@@ 8
伊 8
縞 8
いは 8
麻 8
桐@@ 8
己@@ 8
６@@ 8
δ@@ 8
Ω@@ 8
瞰 8
卑 8
辻 8
嘉@@ 8
敢@@ 8
俄@@ 8
胡@@ 8
徹 8
謹@@ 8
伴 8
膠@@ 8
牒 8
箇 8
躰 8
畑@@ 8
緯@@ 8
級@@ 8
阪 8
僻@@ 8
昌 8
穏 8
ψ 8
縫 8
昌@@ 8
敢 8
輿@@ 8
忠 8
玄 8
摯 8
胎 8
澱@@ 8
斑@@ 8
棚@@ 8
締 8
傑@@ 8
捲 8
霧@@ 8
銚@@ 8
柔 8
嘱@@ 8
芋@@ 8
讐 8
誕 8
干 8
畜@@ 8
辱 8
乃 8
飲 8
鰹 8
靭@@ 8
獅@@ 8
巾@@ 8
牧 8
麺@@ 8
箔 8
苗@@ 8
鯛@@ 8
愕@@ 8
現わ@@ 8
鉛 8
砕 8
崎@@ 8
佃@@ 8
甥@@ 8
唄 8
兜 8
督 8
拌 8
溶 8
痘 8
ω 7
磯@@ 7
臼 7
鵜@@ 7
賦@@ 7
瞭@@ 7
頻 7
普 7
査@@ 7
専 7
悦 7
禿@@ 7
兼 7
庵 7
已@@ 7
翁 7
儚@@ 7
慈@@ 7
罷@@ 7
顧 7
宏 7
榜 7
識@@ 7
紆@@ 7
辻@@ 7
監 7
昇 7
輩@@ 7
匿 7
希 7
鴎@@ 7
零@@ 7
弧 7
崩 7
牙 7
但@@ 7
核@@ 7
咎@@ 7
瑞@@ 7
灌@@ 7
稜@@ 7
凹 7
闊@@ 7
餓@@ 7
班@@ 7
硝@@ 7
毅@@ 7
憂 7
億@@ 7
瀕@@ 7
掌@@ 7
郡@@ 7
閲 7
笠 7
提 7
樫 7
瓜 7
蚊@@ 7
帆@@ 7
例え@@ 7
畝 7
州@@ 7
槍@@ 7
荻 7
枕@@ 7
侮@@ 7
咋 7
帽 7
捧@@ 7
羞@@ 7
耽@@ 7
乃@@ 7
簿@@ 7
慎 7
堤@@ 7
鎌 7
悸 7
償@@ 7
虹 7
煎 7
坑@@ 7
噴 7
梢 6
尼 6
午 6
履 6
改 6
奴 6
糊@@ 6
傾 6
哺@@ 6
きっ@@ 6
俯@@ 6
弘 6
聘 6
萌@@ 6
柿@@ 6
陳 6
晋 6
泉@@ 6
渋 6
鎧 6
勅@@ 6
隋 6
秦 6
决 6
樋 6
槌 6
灸 6
怯 6
働 6
笛@@ 6
鴬 6
鉾 6
吾 6
責 6
咳@@ 6
轟@@ 6
圭@@ 6
蔑@@ 6
χ 6
貧 6
爽 6
薫 6
搾@@ 6
桔@@ 6
隼@@ 6
碁@@ 6
朽 6
慌 6
勅 6
賢 6
醜 6
蹊 6
梶@@ 6
梓 6
絹@@ 6
遼@@ 6
罵@@ 6
蹴 6
扶@@ 6
慇@@ 6
懃 6
醜@@ 6
饉 6
慶 6
渥@@ 6
宰@@ 6
筒@@ 6
櫓 6
胤 6
姥 6
脇@@ 6
贈 6
昏 6
呑@@ 6
瞳 6
膝@@ 6
豹@@ 6
巡 6
傲@@ 6
僑 6
疆 6
玩 6
愴 6
厨@@ 6
涙@@ 6
膿 6
乙@@ 6
澹 6
汗@@ 6
擢 6
溺@@ 6
妬@@ 6
瘤 6
葛 6
柴 6
猪@@ 6
謀@@ 6
楷@@ 6
尿@@ 6
眉 6
鋼@@ 6
閃@@ 6
亮@@ 6
鳶 6
焙@@ 6
椒 6
Φ 5
棘 5
π@@ 5
衝 5
ξ@@ 5
アルゴ@@ 5
粕@@ 5
椀 5
菓 5
梨@@ 5
腑 5
桁@@ 5
咄 5
槻 5
伯 5
諌@@ 5
浩 5
郎@@ 5
楫@@ 5
蒙@@ 5
俊 5
然@@ 5
弔@@ 5
殊 5
閣@@ 5
旒 5
姓@@ 5
緩 5
κ 5
唖 5
鯨@@ 5
套 5
齟@@ 5
齬 5
探 5
諭 5
媚@@ 5
脊@@ 5
蔑 5
漫 5
泰 5
撮 5
髄 5
拙 5
覇@@ 5
遜 5
降 5
盟@@ 5
仙 5
樺 5
后 5
宜@@ 5
綻@@ 5
卯 5
牽@@ 5
磨 5
朔@@ 5
兎 5
描 5
誉@@ 5
斥 5
涜 5
塑 5
媒 5
繊 5
朱@@ 5
瓦@@ 5
嚢 5
瓶@@ 5
杭 5
肴 5
杵@@ 5
串@@ 5
珍 5
扮@@ 5
凱@@ 5
穀 5
虔 5
当たり@@ 5
絆@@ 5
肋@@ 5
肌@@ 5
傘@@ 5
爵 5
紺@@ 5
叫 5
憫 5
埓 5
妃 5
是 5
餐 5
畦@@ 5
腑@@ 5
隼 5
錠 5
栖@@ 5
逗@@ 5
灘 5
祐 5
邸@@ 5
棲 5
嚇 5
凧 5
砧 5
繕 5
紗 5
渚 5
穿@@ 5
罠 5
堺 5
執 5
磐@@ 5
棹 5
薔@@ 5
薇 5
腿@@ 5
袋@@ 5
剪@@ 5
筈 5
至 5
腱 4
伸 4
樋@@ 4
冶@@ 4
魏@@ 4
必 4
鍮 4
褪@@ 4
アプロ@@ 4
距 4
ヴ 4
槻@@ 4
窩 4
柚@@ 4
噺@@ 4
哲 4
曙 4
冶 4
壱@@ 4
忍 4
ヲ 4
宋 4
篤@@ 4
瑠@@ 4
璃 4
慈 4
誌@@ 4
憾 4
帖 4
飼 4
掛 4
ε 4
抽 4
クトル 4
膳@@ 4
頑 4
鷹@@ 4
咀@@ 4
嚼 4
嚥@@ 4
拾 4
洩 4
橘 4
疫@@ 4
憤 4
桧 4
檜 4
揶@@ 4
揄 4
勉@@ 4
裡 4
宙@@ 4
檀@@ 4
逍@@ 4
遥 4
也@@ 4
尋 4
郁@@ 4
遼 4
禅@@ 4
筏@@ 4
堕@@ 4
笹 4
蜂@@ 4
険@@ 4
彰@@ 4
鞍@@ 4
頬@@ 4
猿@@ 4
鳳@@ 4
凰 4
悼 4
掠@@ 4
薫@@ 4
姫@@ 4
罫@@ 4
麹@@ 4
睦 4
燻@@ 4
檄 4
剃@@ 4
厩@@ 4
唖@@ 4
膿@@ 4
耶@@ 4
醸 4
粕 4
燗 4
酌@@ 4
蒼@@ 4
樽@@ 4
垢@@ 4
俳 4
廻 4
竿@@ 4
壮 4
浩@@ 4
荼@@ 4
錦 4
彦@@ 4
巳@@ 4
藩@@ 4
浅 4
恰@@ 4
鎮 4
庁@@ 4
辟@@ 4
泣 4
徘@@ 4
徊 4
朽@@ 4
鴎 4
侠 4
闊 4
姑 4
堰 4
鞭@@ 4
牢@@ 4
肛@@ 4
盧@@ 4
堵 4
狛@@ 4
寮@@ 4
媚 4
鶏 4
鄙 4
寅 4
佳@@ 4
酪@@ 4
禄@@ 4
褐@@ 4
飴@@ 4
粟 4
獄@@ 4
郭@@ 4
楳@@ 4
寄 4
砦 4
曽 4
嫉@@ 4
妬 4
紘@@ 4
憶@@ 4
紛 4
巫@@ 4
栓@@ 4
糠@@ 4
籾@@ 4
叡 4
鏡@@ 4
渣 4
Θ 3
依 3
啄@@ 3
虹@@ 3
鞘 3
閾@@ 3
抑 3
蔽@@ 3
墜 3
項@@ 3
ぞれ 3
杵 3
禎@@ 3
斎@@ 3
悦@@ 3
沫 3
尼@@ 3
汝 3
匂@@ 3
愁@@ 3
漏 3
軌 3
氈 3
峻@@ 3
亨 3
舶@@ 3
綬 3
楠 3
謡@@ 3
升@@ 3
添 3
瓜@@ 3
漱 3
弛@@ 3
れど 3
なじ 3
填 3
蓁 3
惰@@ 3
倹@@ 3
掲 3
糾@@ 3
錯 3
李 3
陪@@ 3
衷 3
姦 3
塔@@ 3
奢 3
疼@@ 3
詔@@ 3
譚 3
克 3
峯@@ 3
桎@@ 3
梏 3
毘@@ 3
菅 3
爛@@ 3
鮒 3
潜 3
奉 3
誹@@ 3
謗 3
陶 3
弄 3
漆@@ 3
喰 3
祠 3
枡@@ 3
襖 3
暁 3
魁@@ 3
乞@@ 3
采@@ 3
昆 3
骸@@ 3
懇 3
霹@@ 3
靂 3
くは 3
囚 3
桿 3
銜@@ 3
佑@@ 3
謎@@ 3
彫 3
禾@@ 3
奄@@ 3
哀 3
邁@@ 3
房@@ 3
椰@@ 3
蟹@@ 3
痔 3
颯@@ 3
とに@@ 3
ヂ@@ 3
躁@@ 3
蹂@@ 3
躙 3
沈 3
圏@@ 3
憐 3
拷@@ 3
鉗@@ 3
鞍 3
袂 3
伽 3
貢 3
梯 3
磋 3
琢@@ 3
孵@@ 3
捗@@ 3
悶@@ 3
叉 3
幼 3
坦@@ 3
訶 3
惰 3
僅@@ 3
屯 3
斗@@ 3
廬@@ 3
屁 3
鞄@@ 3
凶 3
馨 3
珊 3
渠 3
蕨 3
幡@@ 3
榛@@ 3
曙@@ 3
幟@@ 3
碑@@ 3
瞑@@ 3
禍 3
肢@@ 3
伯@@ 3
械 3
芯@@ 3
錆 3
檎 3
諧 3
窯@@ 3
腺@@ 3
渉@@ 3
陀@@ 3
軋@@ 3
轢 3
蜀 3
玲 3
芹@@ 3
款 3
掟 3
踪 3
珊@@ 3
瑚 3
堺@@ 3
燦@@ 3
紡@@ 3
恨 3
塊 3
翼@@ 3
杓@@ 3
斤 3
喬 3
謄@@ 3
蜂 3
租 3
霖 3
析 3
膀@@ 3
胱 3
較@@ 3
滄@@ 3
混 2
努 2
鰐@@ 2
者@@ 2
挿 2
拡 2
排 2
イギ@@ 2
葱 2
葡 2
貞 2
婉@@ 2
醒@@ 2
裔 2
鼎 2
既 2
舟 2
詣 2
駱@@ 2
儒 2
妨 2
柯 2
篇@@ 2
餞@@ 2
詢 2
挺 2
竺 2
宋@@ 2
誂@@ 2
忘 2
捉 2
冑 2
姑@@ 2
蜘@@ 2
蛛 2
批 2
券@@ 2
融 2
汎 2
炸@@ 2
錫 2
咬@@ 2
甚 2
鮎@@ 2
柑@@ 2
綜 2
寡@@ 2
析@@ 2
祷 2
刮@@ 2
賎 2
鬘 2
衍 2
訟@@ 2
忖@@ 2
桝 2
Κ 2
Ψ 2
叢@@ 2
俎@@ 2
玖@@ 2
噺 2
蝦@@ 2
滝@@ 2
蔡@@ 2
撚@@ 2
怨 2
罫 2
候@@ 2
烈@@ 2
胡 2
甫 2
洵@@ 2
碓@@ 2
黎@@ 2
嫡@@ 2
蝕@@ 2
企 2
牟@@ 2
殉@@ 2
沃 2
筐@@ 2
状@@ 2
孔@@ 2
訛 2
慮@@ 2
渤@@ 2
鋳 2
魍@@ 2
魎 2
某@@ 2
燭@@ 2
祀 2
靭 2
茅 2
洛@@ 2
渇 2
畦 2
誓 2
鐘@@ 2
顆@@ 2
鞘@@ 2
鴨@@ 2
饒@@ 2
禍@@ 2
廉@@ 2
斑 2
輝 2
蓑@@ 2
梟 2
蒋 2
央 2
蜷@@ 2
附 2
聡 2
塵@@ 2
脆 2
檄@@ 2
龍 2
兔@@ 2
滴@@ 2
憬 2
冥@@ 2
彗@@ 2
憑@@ 2
曼@@ 2
蚕 2
弦@@ 2
埜 2
肘@@ 2
彷@@ 2
彿 2
茜@@ 2
涛 2
κ@@ 2
埠@@ 2
賦 2
鑚 2
鋒 2
尉 2
欽 2
厭@@ 2
咽 2
奔 2
筵 2
霜 2
縷@@ 2
儚 2
令@@ 2
竣@@ 2
纏@@ 2
憔@@ 2
悴 2
毘 2
蓑 2
椿@@ 2
煌@@ 2
杞@@ 2
霜@@ 2
殿@@ 2
輔 2
鱒@@ 2
杜 2
卸 2
鵜 2
絢@@ 2
爛 2
塗 2
凧@@ 2
萌 2
只@@ 2
舵 2
燕@@ 2
屠@@ 2
宣 2
吾@@ 2
痕 2
諤@@ 2
藻@@ 2
玩@@ 2
弄@@ 2
嘔@@ 2
吐 2
薙@@ 2
鳳 2
煤 2
救 2
胞@@ 2
怨@@ 2
寧@@ 2
瓢@@ 2
盾@@ 2
沸 2
蠍 2
錬@@ 2
悌 2
訝 2
綸@@ 2
匍@@ 2
匐 2
捺@@ 2
梱 2
硯 2
橙 2
宵@@ 2
寅@@ 2
鵠@@ 2
埴@@ 2
皐@@ 2
浮 2
逡@@ 2
俸@@ 2
穣 2
棋@@ 2
咤 2
茉@@ 2
莉@@ 2
晃 2
滸@@ 2
劉@@ 2
倦@@ 2
怠 2
湘 2
襄 2
幟 2
筍 2
茎@@ 1
刹 1
斐@@ 1
莽 1
墳@@ 1
畿@@ 1
拘 1
髄@@ 1
遁@@ 1
曵 1
矩 1
禽 1
槌@@ 1
瞳@@ 1
筧 1
縊@@ 1
葵 1
翔 1
寵@@ 1
荏 1
疋 1
餅@@ 1
洲@@ 1
焉@@ 1
醇@@ 1
賓@@ 1
蓬@@ 1
莱 1
躬@@ 1
恒 1
楮 1
盈 1
虔@@ 1
尓 1
悼@@ 1
狼@@ 1
藉 1
駱 1
陟 1
戎 1
于 1
潘@@ 1
耒 1
徂@@ 1
徠 1
隠 1
馮 1
彭@@ 1
幇@@ 1
邇 1
呉 1
泓 1
肱 1
烏 1
於 1
昂 1
蹤 1
族@@ 1
瑣 1
驥@@ 1
雁 1
誦@@ 1
諮@@ 1
彙@@ 1
呑 1
矮@@ 1
蕩 1
敦@@ 1
煌 1
戈@@ 1
楼@@ 1
舩 1
魯@@ 1
魏 1
无@@ 1
誦 1
慙@@ 1
愧 1
荀@@ 1
按@@ 1
翻 1
飽 1
迂 1
壷@@ 1
酋@@ 1
ψ@@ 1
紹@@ 1
壅 1
肇 1
績@@ 1
姶@@ 1
爾 1
紘 1
蘂 1
摘 1
顫@@ 1
滋 1
芳 1
夾@@ 1
唇@@ 1
返 1
姚 1
貯 1
孤 1
瀝@@ 1
濘 1
冥 1
陋 1
購 1
睾@@ 1
嬰@@ 1
嶺 1
舛 1
筥@@ 1
閤 1
頒@@ 1
妾 1
謬@@ 1
碧@@ 1
倭 1
薙 1
肇@@ 1
邁 1
伍@@ 1
卿 1
稔 1
峰@@ 1
玲@@ 1
究 1
柱@@ 1
迪@@ 1
嚆@@ 1
稔@@ 1
惹@@ 1
胚@@ 1
汪 1
琴@@ 1
庵@@ 1
溢 1
唆@@ 1
憚 1
吻 1
悉 1
播@@ 1
魑@@ 1
魅 1
輻@@ 1
姆@@ 1
欄@@ 1
蓼 1
櫂 1
匕 1
蒸 1
佰@@ 1
裳@@ 1
嘱 1
丑@@ 1
昏@@ 1
械@@ 1
秦@@ 1
牆 1
蹄@@ 1
峙 1
牝@@ 1
渓 1
疱 1
籐@@ 1
顕 1
鷲@@ 1
汚 1
緋@@ 1
淑 1
箭 1
苫@@ 1
嚢@@ 1
袴@@ 1
薦@@ 1
卦 1
孟@@ 1
悲 1
痔@@ 1
凌 1
楚 1
痰@@ 1
匣 1
鼠 1
仔 1
崑@@ 1
崙 1
峡@@ 1
枇@@ 1
杷@@ 1
臀@@ 1
椿 1
庸@@ 1
栞 1
桟 1
巴 1
鸞 1
巨 1
娯 1
噌@@ 1
欽@@ 1
籾 1
懺@@ 1
喚 1
嗚@@ 1
涸@@ 1
縞@@ 1
ヅ@@ 1
謙 1
贖@@ 1
般@@ 1
桶@@ 1
蹟@@ 1
庚@@ 1
蹟 1
沿 1
妹@@ 1
曹@@ 1
鏑@@ 1
酉 1
砥 1
朋 1
癌@@ 1
烹 1
又 1
刈 1
侯 1
猷 1
況@@ 1
洪 1
簀@@ 1
秤@@ 1
柄@@ 1
嬬@@ 1
聡@@ 1
袷 1
殷 1
凛@@ 1
什@@ 1
燿@@ 1
啖@@ 1
呵 1
戻 1
篆@@ 1
緘@@ 1
塀@@ 1
榎@@ 1
騎 1
艶@@ 1
鼠@@ 1
倶@@ 1
襟@@ 1
裳 1
櫃 1
訃@@ 1
楠@@ 1
丑 1
肖 1
扉@@ 1
廷@@ 1
吏 1
岱@@ 1
召 1
梁@@ 1
朴@@ 1
訥 1
閏@@ 1
嶽 1
爬 1
亮 1
酎@@ 1
憊 1
埃@@ 1
甑 1
慄 1
呵@@ 1
帥 1
捲@@ 1
澱 1
眄 1
娑@@ 1
欺@@ 1
僥@@ 1
倖 1
偵@@ 1
而 1
圭 1
危 1
錠@@ 1
愕 1
逐 1
恐 1
喘 1
轍 1
喃@@ 1
膾@@ 1
炙 1
牢 1
魁 1
抹 1
票@@ 1
陵@@ 1
薯 1
股@@ 1
扁 1
逝 1
韮@@ 1
拗 1
亙 1
競 1
諧@@ 1
謔 1
銑 1
銑@@ 1
侵 1
砥@@ 1
鱗@@ 1
醇 1
諾@@ 1
挽 1
杜@@ 1
粟@@ 1
蛎 1
琥@@ 1
珀 1
雁@@ 1
榊 1
椅 1
簾 1
痒 1
剖@@ 1
苔@@ 1
侯@@ 1
押 1
赭 1
憶 1
蠣@@ 1
淑@@ 1
芙@@ 1
逸 1
崑 1
撤 1
悠 1
謁@@ 1
薩@@ 1
遷@@ 1
逢@@ 1
舟@@ 1
葦@@ 1
擁 1
憐@@ 1
晰 1
厘 1
榎 1
灌 1
徐 1
巴@@ 1
灼@@ 1
坑 1
逼@@ 1
錨 1
縷 1
瀋@@ 1
祝 1
忸@@ 1
怩 1
煥@@ 1
舵@@ 1
笏 1
丈@@ 1
楚@@ 1
忽 1
吟 1
阻 1
慕 1
薮@@ 1
糞@@ 1
恭 1
霖@@ 1
澄 1
耶 1
粘 1
癖@@ 1
蚕@@ 1
韓@@ 1
眈@@ 1
鈍 1
硯@@ 1
紬@@ 1
緬 1
奈 1
屍 1
疽 1
湛@@ 1
葵@@ 1
碍@@ 1
揮@@ 1
碧 1
襖@@ 1
斥@@ 1
